{
  "version": "1.0",
  "truncation": null,
  "padding": null,
  "added_tokens": [
    {
      "id": 0,
      "content": "<s>",
      "single_word": false,
      "lstrip": false,
      "rstrip": false,
      "normalized": false,
      "special": true
    },
    {
      "id": 1,
      "content": "<pad>",
      "single_word": false,
      "lstrip": false,
      "rstrip": false,
      "normalized": false,
      "special": true
    },
    {
      "id": 2,
      "content": "</s>",
      "single_word": false,
      "lstrip": false,
      "rstrip": false,
      "normalized": false,
      "special": true
    },
    {
      "id": 3,
      "content": "<unk>",
      "single_word": false,
      "lstrip": false,
      "rstrip": false,
      "normalized": false,
      "special": true
    },
    {
      "id": 4,
      "content": "<mask>",
      "single_word": false,
      "lstrip": false,
      "rstrip": false,
      "normalized": false,
      "special": true
    }
  ],
  "normalizer": {
    "type": "NFKC"
  },
  "pre_tokenizer": {
    "type": "Metaspace",
    "replacement": "▁",
    "prepend_scheme": "always",
    "split": true
  },
  "post_processor": null,
  "decoder": {
    "type": "Metaspace",
    "replacement": "▁",
    "prepend_scheme": "always",
    "split": true
  },
  "model": {
    "type": "BPE",
    "dropout": null,
    "unk_token": "<unk>",
    "continuing_subword_prefix": null,
    "end_of_word_suffix": null,
    "fuse_unk": false,
    "byte_fallback": false,
    "ignore_merges": false,
    "vocab": {
      "<s>": 0,
      "<pad>": 1,
      "</s>": 2,
      "<unk>": 3,
      "<mask>": 4,
      "\u0001": 5,
      "\b": 6,
      "\u0011": 7,
      "\u0012": 8,
      "\u0015": 9,
      "\u001c": 10,
      "\u001e": 11,
      "\u001f": 12,
      "!": 13,
      "\"": 14,
      "#": 15,
      "$": 16,
      "%": 17,
      "&": 18,
      "'": 19,
      "(": 20,
      ")": 21,
      "*": 22,
      "+": 23,
      ",": 24,
      "-": 25,
      ".": 26,
      "/": 27,
      "1": 28,
      "2": 29,
      "3": 30,
      "4": 31,
      ":": 32,
      ";": 33,
      "<": 34,
      "=": 35,
      ">": 36,
      "?": 37,
      "@": 38,
      "M": 39,
      "T": 40,
      "[": 41,
      "\\": 42,
      "]": 43,
      "^": 44,
      "_": 45,
      "`": 46,
      "a": 47,
      "o": 48,
      "x": 49,
      "{": 50,
      "|": 51,
      "}": 52,
      "~": 53,
      "": 54,
      "": 55,
      "": 56,
      "": 57,
      "": 58,
      "": 59,
      "": 60,
      "": 61,
      "": 62,
      "": 63,
      "¢": 64,
      "£": 65,
      "¤": 66,
      "¥": 67,
      "¦": 68,
      "©": 69,
      "«": 70,
      "¬": 71,
      "­": 72,
      "®": 73,
      "°": 74,
      "±": 75,
      "·": 76,
      "»": 77,
      "¿": 78,
      "Å": 79,
      "Æ": 80,
      "Ç": 81,
      "È": 82,
      "Ï": 83,
      "Ð": 84,
      "Ò": 85,
      "Ô": 86,
      "Õ": 87,
      "×": 88,
      "Ù": 89,
      "Ú": 90,
      "Û": 91,
      "Ü": 92,
      "Ý": 93,
      "Þ": 94,
      "à": 95,
      "á": 96,
      "ä": 97,
      "æ": 98,
      "ç": 99,
      "è": 100,
      "é": 101,
      "ê": 102,
      "ì": 103,
      "÷": 104,
      "ø": 105,
      "û": 106,
      "ı": 107,
      "ł": 108,
      "Œ": 109,
      "œ": 110,
      "ƒ": 111,
      "ǃ": 112,
      "ʹ": 113,
      "ʻ": 114,
      "ʼ": 115,
      "ʽ": 116,
      "ʾ": 117,
      "ʿ": 118,
      "˂": 119,
      "˃": 120,
      "ˆ": 121,
      "ˇ": 122,
      "ˊ": 123,
      "ː": 124,
      "˗": 125,
      "ˮ": 126,
      "́": 127,
      "̃": 128,
      "̄": 129,
      "̆": 130,
      "̈": 131,
      "̊": 132,
      "̋": 133,
      "̒": 134,
      "̓": 135,
      "̔": 136,
      "̕": 137,
      "̧": 138,
      "̭": 139,
      "̯": 140,
      "̵": 141,
      "̸": 142,
      "Σ": 143,
      "β": 144,
      "π": 145,
      "σ": 146,
      "А": 147,
      "В": 148,
      "Г": 149,
      "Д": 150,
      "Ж": 151,
      "З": 152,
      "О": 153,
      "П": 154,
      "С": 155,
      "У": 156,
      "а": 157,
      "б": 158,
      "в": 159,
      "г": 160,
      "д": 161,
      "е": 162,
      "ж": 163,
      "и": 164,
      "й": 165,
      "к": 166,
      "л": 167,
      "м": 168,
      "н": 169,
      "о": 170,
      "п": 171,
      "р": 172,
      "с": 173,
      "т": 174,
      "у": 175,
      "х": 176,
      "ц": 177,
      "ч": 178,
      "ь": 179,
      "я": 180,
      "і": 181,
      "ї": 182,
      "҆": 183,
      "Ե": 184,
      "֥": 185,
      "֪": 186,
      "֯": 187,
      "ְ": 188,
      "ֲ": 189,
      "ֹ": 190,
      "ֺ": 191,
      "־": 192,
      "ׅ": 193,
      "׍": 194,
      "א": 195,
      "ב": 196,
      "ד": 197,
      "ה": 198,
      "ו": 199,
      "ז": 200,
      "ח": 201,
      "ט": 202,
      "י": 203,
      "כ": 204,
      "ל": 205,
      "ם": 206,
      "מ": 207,
      "ן": 208,
      "נ": 209,
      "ס": 210,
      "ע": 211,
      "פ": 212,
      "צ": 213,
      "ק": 214,
      "ר": 215,
      "ש": 216,
      "ת": 217,
      "״": 218,
      "،": 219,
      "ؘ": 220,
      "ء": 221,
      "آ": 222,
      "أ": 223,
      "ؤ": 224,
      "إ": 225,
      "ئ": 226,
      "ا": 227,
      "ب": 228,
      "ة": 229,
      "ت": 230,
      "ث": 231,
      "ج": 232,
      "ح": 233,
      "خ": 234,
      "د": 235,
      "ذ": 236,
      "ر": 237,
      "ز": 238,
      "س": 239,
      "ش": 240,
      "ص": 241,
      "ض": 242,
      "ط": 243,
      "ظ": 244,
      "ع": 245,
      "غ": 246,
      "ف": 247,
      "ق": 248,
      "ك": 249,
      "ل": 250,
      "م": 251,
      "ن": 252,
      "ه": 253,
      "و": 254,
      "ى": 255,
      "ي": 256,
      "ٰ": 257,
      "ٹ": 258,
      "پ": 259,
      "چ": 260,
      "ڈ": 261,
      "ڑ": 262,
      "ک": 263,
      "گ": 264,
      "ں": 265,
      "ھ": 266,
      "ہ": 267,
      "ی": 268,
      "ے": 269,
      "۔": 270,
      "۪": 271,
      "۲": 272,
      "۳": 273,
      "ް": 274,
      "޽": 275,
      "߁": 276,
      "ߢ": 277,
      "ࡆ": 278,
      "ࡕ": 279,
      "ࡦ": 280,
      "࡮": 281,
      "ࢉ": 282,
      "ࢍ": 283,
      "࢖": 284,
      "ࢪ": 285,
      "࣓": 286,
      "ँ": 287,
      "ं": 288,
      "ः": 289,
      "अ": 290,
      "आ": 291,
      "इ": 292,
      "ई": 293,
      "उ": 294,
      "ऊ": 295,
      "ऋ": 296,
      "ऎ": 297,
      "ए": 298,
      "ऐ": 299,
      "ऑ": 300,
      "ऒ": 301,
      "ओ": 302,
      "औ": 303,
      "क": 304,
      "ख": 305,
      "ग": 306,
      "घ": 307,
      "ङ": 308,
      "च": 309,
      "छ": 310,
      "ज": 311,
      "झ": 312,
      "ञ": 313,
      "ट": 314,
      "ठ": 315,
      "ड": 316,
      "ढ": 317,
      "ण": 318,
      "त": 319,
      "थ": 320,
      "द": 321,
      "ध": 322,
      "न": 323,
      "ऩ": 324,
      "प": 325,
      "फ": 326,
      "ब": 327,
      "भ": 328,
      "म": 329,
      "य": 330,
      "र": 331,
      "ऱ": 332,
      "ल": 333,
      "ळ": 334,
      "ऴ": 335,
      "व": 336,
      "श": 337,
      "ष": 338,
      "स": 339,
      "ह": 340,
      "़": 341,
      "ऽ": 342,
      "ा": 343,
      "ि": 344,
      "ी": 345,
      "ु": 346,
      "ू": 347,
      "ृ": 348,
      "ॄ": 349,
      "ॅ": 350,
      "ॆ": 351,
      "े": 352,
      "ै": 353,
      "ॉ": 354,
      "ॊ": 355,
      "ो": 356,
      "ौ": 357,
      "्": 358,
      "ॐ": 359,
      "॑": 360,
      "॒": 361,
      "॔": 362,
      "ॠ": 363,
      "।": 364,
      "॥": 365,
      "०": 366,
      "१": 367,
      "२": 368,
      "३": 369,
      "४": 370,
      "५": 371,
      "६": 372,
      "७": 373,
      "८": 374,
      "९": 375,
      "॰": 376,
      "ॲ": 377,
      "০": 378,
      "১": 379,
      "৷": 380,
      "ં": 381,
      "ઃ": 382,
      "અ": 383,
      "આ": 384,
      "ઈ": 385,
      "ક": 386,
      "ખ": 387,
      "ગ": 388,
      "ચ": 389,
      "છ": 390,
      "જ": 391,
      "ડ": 392,
      "ણ": 393,
      "ત": 394,
      "થ": 395,
      "દ": 396,
      "ધ": 397,
      "ન": 398,
      "પ": 399,
      "ફ": 400,
      "બ": 401,
      "ભ": 402,
      "મ": 403,
      "ય": 404,
      "ર": 405,
      "લ": 406,
      "ળ": 407,
      "વ": 408,
      "શ": 409,
      "ષ": 410,
      "સ": 411,
      "હ": 412,
      "ા": 413,
      "િ": 414,
      "ી": 415,
      "ુ": 416,
      "ૂ": 417,
      "ૃ": 418,
      "ે": 419,
      "ો": 420,
      "્": 421,
      "ૐ": 422,
      "૪": 423,
      "୵": 424,
      "ಂ": 425,
      "ಆ": 426,
      "ಇ": 427,
      "ಎ": 428,
      "ಕ": 429,
      "ಖ": 430,
      "ಗ": 431,
      "ಚ": 432,
      "ಜ": 433,
      "ಟ": 434,
      "ಣ": 435,
      "ತ": 436,
      "ದ": 437,
      "ನ": 438,
      "ಪ": 439,
      "ಬ": 440,
      "ಮ": 441,
      "ಯ": 442,
      "ರ": 443,
      "ಲ": 444,
      "ಳ": 445,
      "ವ": 446,
      "ಷ": 447,
      "ಸ": 448,
      "ಹ": 449,
      "ಾ": 450,
      "ಿ": 451,
      "ೀ": 452,
      "ು": 453,
      "ೂ": 454,
      "ೃ": 455,
      "ೆ": 456,
      "ೇ": 457,
      "ೈ": 458,
      "ೊ": 459,
      "ೋ": 460,
      "್": 461,
      "ก": 462,
      "ง": 463,
      "จ": 464,
      "ช": 465,
      "ฐ": 466,
      "ณ": 467,
      "ด": 468,
      "ท": 469,
      "ธ": 470,
      "น": 471,
      "บ": 472,
      "ป": 473,
      "พ": 474,
      "ม": 475,
      "ย": 476,
      "ร": 477,
      "ล": 478,
      "ว": 479,
      "ศ": 480,
      "ส": 481,
      "ห": 482,
      "อ": 483,
      "ะ": 484,
      "ั": 485,
      "า": 486,
      "ิ": 487,
      "ี": 488,
      "ู": 489,
      "ฺ": 490,
      "เ": 491,
      "โ": 492,
      "็": 493,
      "่": 494,
      "้": 495,
      "ས": 496,
      "​": 497,
      "‌": 498,
      "‎": 499,
      "‏": 500,
      "‐": 501,
      "‒": 502,
      "―": 503,
      "‚": 504,
      "‛": 505,
      "„": 506,
      "‟": 507,
      "†": 508,
      "•": 509,
      "‪": 510,
      "‬": 511,
      "‭": 512,
      "‰": 513,
      "′": 514,
      "‵": 515,
      "‹": 516,
      "›": 517,
      "⁄": 518,
      "⁠": 519,
      "⁣": 520,
      "⁦": 521,
      "⁩": 522,
      "€": 523,
      "₹": 524,
      "→": 525,
      "↕": 526,
      "↪": 527,
      "⇒": 528,
      "∅": 529,
      "∈": 530,
      "−": 531,
      "∕": 532,
      "∙": 533,
      "√": 534,
      "∞": 535,
      "∩": 536,
      "∪": 537,
      "∫": 538,
      "≈": 539,
      "≠": 540,
      "≤": 541,
      "≥": 542,
      "⋲": 543,
      "⎯": 544,
      "␀": 545,
      "▁": 546,
      "को": 547,
      "▁स": 548,
      "का": 549,
      "मा": 550,
      "्र": 551,
      "▁प": 552,
      "र्": 553,
      "न्": 554,
      "▁ग": 555,
      "ले": 556,
      "ने": 557,
      "▁र": 558,
      "▁ब": 559,
      "्य": 560,
      "ला": 561,
      "▁भ": 562,
      "▁अ": 563,
      "ार": 564,
      "▁व": 565,
      "▁छ": 566,
      "▁क": 567,
      "▁न": 568,
      "▁ह": 569,
      "▁प्र": 570,
      "▁म": 571,
      "▁द": 572,
      "ाल": 573,
      "▁ज": 574,
      "▁आ": 575,
      "ता": 576,
      "स्": 577,
      "ति": 578,
      "ना": 579,
      "▁उ": 580,
      "एको": 581,
      "▁त": 582,
      "क्": 583,
      "ान": 584,
      "▁गर": 585,
      "यो": 586,
      "▁का": 587,
      "▁वि": 588,
      "ेको": 589,
      "त्र": 590,
      "नि": 591,
      "▁छ।": 592,
      "म्": 593,
      "▁गर्": 594,
      "लाई": 595,
      "वा": 596,
      "री": 597,
      "नु": 598,
      "ित": 599,
      "िक": 600,
      "▁नि": 601,
      "या": 602,
      "▁थ": 603,
      "▁ख": 604,
      "▁च": 605,
      "्या": 606,
      "▁ल": 607,
      "▁ला": 608,
      "▁रा": 609,
      "न्।": 610,
      "▁हु": 611,
      "रा": 612,
      "क्ष": 613,
      "▁मा": 614,
      "▁ए": 615,
      "हर": 616,
      "▁श": 617,
      "था": 618,
      "न्द": 619,
      "▁ने": 620,
      "ल्": 621,
      "पाल": 622,
      "▁य": 623,
      "ेश": 624,
      "▁स्": 625,
      "त्": 626,
      "▁दि": 627,
      "बा": 628,
      "▁सा": 629,
      "▁सं": 630,
      "ष्": 631,
      "▁पनि": 632,
      "▁सम": 633,
      "ाउ": 634,
      "▁१": 635,
      "ुर": 636,
      "▁थि": 637,
      "ेका": 638,
      "एका": 639,
      "▁उन": 640,
      "▁'": 641,
      "रि": 642,
      "हि": 643,
      "▁२": 644,
      "▁लाग": 645,
      "ए।": 646,
      "र्य": 647,
      "हा": 648,
      "▁भएको": 649,
      "दै": 650,
      "ेर": 651,
      "न्त्र": 652,
      "बाट": 653,
      "▁फ": 654,
      "दा": 655,
      "िका": 656,
      "▁नेपाल": 657,
      "पा": 658,
      "यो।": 659,
      "▁छन्।": 660,
      "▁पा": 661,
      "▁निर्": 662,
      "द्": 663,
      "▁भने": 664,
      "क्र": 665,
      "भा": 666,
      "▁हो": 667,
      "ेल": 668,
      "▁रह": 669,
      "▁गरेको": 670,
      "ीय": 671,
      "ष्ट": 672,
      "िएको": 673,
      "▁बता": 674,
      "कार": 675,
      "वि": 676,
      "छि": 677,
      "▁घ": 678,
      "▁पु": 679,
      "रण": 680,
      "स्त": 681,
      "देश": 682,
      "▁कार्य": 683,
      "▁लागि": 684,
      "र्ष": 685,
      "▁ट": 686,
      "गा": 687,
      "रो": 688,
      "ेख": 689,
      "सा": 690,
      "हरू": 691,
      "नी": 692,
      "ारी": 693,
      "▁के": 694,
      "▁प्रति": 695,
      "▁त्य": 696,
      "ध्य": 697,
      "छ।": 698,
      "ही": 699,
      "लो": 700,
      "▁सम्": 701,
      "▁गर्ने": 702,
      "बार": 703,
      "▁गर्न": 704,
      "▁एक": 705,
      "▁सु": 706,
      "न्त": 707,
      "हरु": 708,
      "ली": 709,
      "धान": 710,
      "स्था": 711,
      "▁बा": 712,
      "्च": 713,
      "▁को": 714,
      "िय": 715,
      "▁क्": 716,
      "▁सर": 717,
      "गर": 718,
      "पछि": 719,
      "ालय": 720,
      "▁तथा": 721,
      "▁व्य": 722,
      "ँग": 723,
      "▁जना": 724,
      "▁अनु": 725,
      "▁यस": 726,
      "म्म": 727,
      "▁ड": 728,
      "मी": 729,
      "योग": 730,
      "्न": 731,
      "▁थियो।": 732,
      "▁वर्ष": 733,
      "की": 734,
      "ण्": 735,
      "▁उनले": 736,
      "▁सह": 737,
      "पर्": 738,
      "▁कु": 739,
      "धि": 740,
      "▁दु": 741,
      "ेट": 742,
      "▁ध": 743,
      "रह": 744,
      "▁उप": 745,
      "▁हुने": 746,
      "▁रु": 747,
      "सँग": 748,
      "जार": 749,
      "टा": 750,
      "भि": 751,
      "▁बढ": 752,
      "िल्": 753,
      "न्त्री": 754,
      "▁हो।": 755,
      "ष्ट्र": 756,
      "टी": 757,
      "ेखि": 758,
      "ण्ड": 759,
      "ेस": 760,
      "स्थ": 761,
      "कारी": 762,
      "▁यो": 763,
      "▁आफ": 764,
      "▁सि": 765,
      "▁सरकार": 766,
      "▁क्ष": 767,
      "नमा": 768,
      "न्द्र": 769,
      "ंग": 770,
      "▁राज": 771,
      "▁२०": 772,
      "ाइ": 773,
      "ङ्": 774,
      "सार": 775,
      "▁रहेको": 776,
      "्रो": 777,
      "▁मु": 778,
      "र्थ": 779,
      "वस्था": 780,
      "ेत": 781,
      "क्रम": 782,
      "▁३": 783,
      "▁स्थ": 784,
      "▁लि": 785,
      "र्व": 786,
      "सी": 787,
      "▁बि": 788,
      "याँ": 789,
      "ाउँ": 790,
      "मु": 791,
      "क्त": 792,
      "प्": 793,
      "▁इ": 794,
      "प्र": 795,
      "▁हा": 796,
      "▁ना": 797,
      "्व": 798,
      "कि": 799,
      "सि": 800,
      "▁गरि": 801,
      "एर": 802,
      "द्ध": 803,
      "▁गरेका": 804,
      "द्य": 805,
      "नुपर्": 806,
      "▁बना": 807,
      "ौं": 808,
      "न्न": 809,
      "▁बै": 810,
      "दी": 811,
      "मि": 812,
      "▁प्रह": 813,
      "मन्त्री": 814,
      "▁हजार": 815,
      "जना": 816,
      "नको": 817,
      "▁बताए।": 818,
      "ेत्र": 819,
      "डा": 820,
      "▁थिए।": 821,
      "न्य": 822,
      "पालिका": 823,
      "न्ध": 824,
      "▁से": 825,
      "▁परि": 826,
      "▁काम": 827,
      "पमा": 828,
      "जा": 829,
      "▁क्षेत्र": 830,
      "▁ठ": 831,
      "▁भएका": 832,
      "▁नै": 833,
      "ँदै": 834,
      "▁विश": 835,
      "▁५": 836,
      "ानी": 837,
      "▁भन्": 838,
      "▁सो": 839,
      "▁राष्ट्र": 840,
      "▁त्यस": 841,
      "्रा": 842,
      "▁प्रहरी": 843,
      "▁कि": 844,
      "▁गरिएको": 845,
      "लि": 846,
      "▁स्थान": 847,
      "सम्म": 848,
      "न।": 849,
      "▁वा": 850,
      "ुरु": 851,
      "ध्यक्ष": 852,
      "ती": 853,
      "▁पार्": 854,
      "▁पू": 855,
      "▁४": 856,
      "न्दा": 857,
      "▁जान": 858,
      "▁तर": 859,
      "हिले": 860,
      "हाँ": 861,
      "▁मि": 862,
      "▁रो": 863,
      "धार": 864,
      "स्ता": 865,
      "माण": 866,
      "▁प्रदेश": 867,
      "म्प": 868,
      "▁प्रा": 869,
      "बै": 870,
      "उने": 871,
      "क्षा": 872,
      "ेद": 873,
      "ञ्च": 874,
      "▁मह": 875,
      "▁उनी": 876,
      "▁गर्दै": 877,
      "ेला": 878,
      "सक": 879,
      "▁समा": 880,
      "रहेको": 881,
      "▁गरी": 882,
      "वार": 883,
      "▁गत": 884,
      "मुख": 885,
      "▁गरे": 886,
      "▁जन": 887,
      "बन्ध": 888,
      "िल्ला": 889,
      "▁भए": 890,
      "▁अध": 891,
      "उन": 892,
      "टर": 893,
      "नुभ": 894,
      "ंक": 895,
      "▁(": 896,
      "ृत": 897,
      "्ने": 898,
      "▁ती": 899,
      "▁बु": 900,
      "▁सबै": 901,
      "▁६": 902,
      "▁जिल्ला": 903,
      "▁अर्": 904,
      "कु": 905,
      "▁सय": 906,
      "डि": 907,
      "▁दुई": 908,
      "िम": 909,
      "हु": 910,
      "र्ण": 911,
      "रु": 912,
      "चार": 913,
      "▁जा": 914,
      "▁खेल": 915,
      "▁उत्": 916,
      "िति": 917,
      "मान": 918,
      "▁जो": 919,
      "शा": 920,
      "ठमा": 921,
      "▁मात्र": 922,
      "▁पुग": 923,
      "नुपर्ने": 924,
      "तिक": 925,
      "बी": 926,
      "न्छ।": 927,
      "डी": 928,
      "▁राख": 929,
      "जी": 930,
      "▁दिन": 931,
      "▁महि": 932,
      "न्छ": 933,
      "▁पर": 934,
      "▁लाख": 935,
      "▁छै": 936,
      "टक": 937,
      "▁ओ": 938,
      "▁नेपाली": 939,
      "▁पार्टी": 940,
      "्रम": 941,
      "▁काठमा": 942,
      "क्ति": 943,
      "भाव": 944,
      "▁अध्यक्ष": 945,
      "▁पहि": 946,
      "र्फ": 947,
      "गत": 948,
      "▁जानकारी": 949,
      "ोल": 950,
      "▁भार": 951,
      "▁निर्माण": 952,
      "रमा": 953,
      "▁दा": 954,
      "▁समय": 955,
      "▁केन्द्र": 956,
      "घि": 957,
      "देखि": 958,
      "▁कार्यालय": 959,
      "ग्र": 960,
      "▁अहिले": 961,
      "▁व्यवस्था": 962,
      "▁कारण": 963,
      "ँदा": 964,
      "▁भारत": 965,
      "ाउने": 966,
      "ँच": 967,
      "▁नगर": 968,
      "▁७": 969,
      "▁अनुसार": 970,
      "▁था": 971,
      "र्ता": 972,
      "▁अव": 973,
      "▁काठमाड": 974,
      "दि": 975,
      "▁महा": 976,
      "▁स्व": 977,
      "▁कार्यक्रम": 978,
      "▁प्रधान": 979,
      "लेख": 980,
      "वाच": 981,
      "निक": 982,
      "कास": 983,
      "▁सञ्च": 984,
      "▁सद": 985,
      "चि": 986,
      "▁रुप": 987,
      "▁पर्": 988,
      "म्ब": 989,
      "ाली": 990,
      "स्य": 991,
      "हित": 992,
      "पुर": 993,
      "▁भन्ने": 994,
      "ेन्": 995,
      "भाग": 996,
      "लमा": 997,
      "▁स्थानीय": 998,
      "▁गाउँ": 999,
      "▁खो": 1000,
      "▁लग": 1001,
      "▁यु": 1002,
      "▁स्वा": 1003,
      "▁आयो": 1004,
      "▁हुन": 1005,
      "जन": 1006,
      "ोक": 1007,
      "ेक": 1008,
      "र्म": 1009,
      "▁आफ्न": 1010,
      "▁अन्त": 1011,
      "▁प्रमुख": 1012,
      "▁देखि": 1013,
      "▁झ": 1014,
      "त्व": 1015,
      "ाउन": 1016,
      "यत": 1017,
      "दान": 1018,
      "▁हि": 1019,
      "्यु": 1020,
      "▁देश": 1021,
      "ष्ठ": 1022,
      "▁भइ": 1023,
      "▁रू": 1024,
      "▁निर्वाच": 1025,
      "▁अधिका": 1026,
      "िया": 1027,
      "माले": 1028,
      "सो": 1029,
      "ूल": 1030,
      "▁लगा": 1031,
      "ट्": 1032,
      "ठक": 1033,
      "▁केही": 1034,
      "नै": 1035,
      "इएको": 1036,
      "ैयाँ": 1037,
      "्ञ": 1038,
      "▁चा": 1039,
      "▁अवस्था": 1040,
      "▁विकास": 1041,
      "▁८": 1042,
      "▁या": 1043,
      "पति": 1044,
      "▁बज": 1045,
      "▁गु": 1046,
      "▁शि": 1047,
      "न,": 1048,
      "▁पो": 1049,
      "▁श्र": 1050,
      "भन्दा": 1051,
      "▁समिति": 1052,
      "छन्।": 1053,
      "▁सरकारले": 1054,
      "▁मन्त्र": 1055,
      "▁निय": 1056,
      "पू": 1057,
      "▁हुन्।": 1058,
      "फल": 1059,
      "पी": 1060,
      "▁बैठक": 1061,
      "मै": 1062,
      "▁विष": 1063,
      "▁आव": 1064,
      "▁प्रधानमन्त्री": 1065,
      "कै": 1066,
      "ोर": 1067,
      "▁देख": 1068,
      "ग्": 1069,
      "टि": 1070,
      "▁घर": 1071,
      "▁बताउ": 1072,
      "ौँ": 1073,
      "यर": 1074,
      "सद": 1075,
      "▁९": 1076,
      "वादी": 1077,
      "नका": 1078,
      "सम": 1079,
      "स्तै": 1080,
      "्रेस": 1081,
      "▁खा": 1082,
      "▁अस्": 1083,
      "▁शा": 1084,
      "▁रहेका": 1085,
      "▁भने,": 1086,
      "▁सदस्य": 1087,
      "णा": 1088,
      "▁विषय": 1089,
      "ारा": 1090,
      "▁नेता": 1091,
      "र्च": 1092,
      "राज": 1093,
      "▁१०": 1094,
      "▁बो": 1095,
      "▁आफ्नो": 1096,
      "शत": 1097,
      "▁सक्": 1098,
      "▁भा": 1099,
      "न्दै": 1100,
      "▁विश्व": 1101,
      "▁आएको": 1102,
      "▁गरेर": 1103,
      "▁तय": 1104,
      "▁रुपैयाँ": 1105,
      "▁दल": 1106,
      "पत": 1107,
      "▁राष्ट्रिय": 1108,
      "▁समेत": 1109,
      "▁साथ": 1110,
      "▁सञ्चाल": 1111,
      "स्तो": 1112,
      "दुर": 1113,
      "▁आज": 1114,
      "▁जनाएको": 1115,
      "ब्": 1116,
      "▁विद्य": 1117,
      "▁आइ": 1118,
      "▁ल्या": 1119,
      "रोड": 1120,
      "वास": 1121,
      "▁काठमाडौं": 1122,
      "नले": 1123,
      "▁तीन": 1124,
      "▁प्रतिशत": 1125,
      "▁कुरा": 1126,
      "▁करोड": 1127,
      "धा": 1128,
      "▁कम": 1129,
      "▁मत": 1130,
      "ेरै": 1131,
      "कृ": 1132,
      "▁सुरु": 1133,
      "▁ढ": 1134,
      "खा": 1135,
      "▁पहिलो": 1136,
      "▁बढी": 1137,
      "जि": 1138,
      "सहित": 1139,
      "्यक": 1140,
      "लु": 1141,
      "क्षण": 1142,
      "▁२०७": 1143,
      "▁दो": 1144,
      "▁हामी": 1145,
      "णय": 1146,
      "▁सुर": 1147,
      "डक": 1148,
      "▁धेरै": 1149,
      "ंग्रेस": 1150,
      "च्च": 1151,
      "तामा": 1152,
      "स्या": 1153,
      "▁निर्णय": 1154,
      "यन": 1155,
      "हादुर": 1156,
      "थि": 1157,
      "▁चु": 1158,
      "▁सेवा": 1159,
      "▁मन्त्रालय": 1160,
      "▁आयोजना": 1161,
      "▁चि": 1162,
      "▁खु": 1163,
      "ताको": 1164,
      "▁राम": 1165,
      "▁नभ": 1166,
      "▁अम": 1167,
      "▁मो": 1168,
      "ोली": 1169,
      "▁नगरपालिका": 1170,
      "▁कांग्रेस": 1171,
      "त्य": 1172,
      "▁नयाँ": 1173,
      "▁भन्दै": 1174,
      "▁सभा": 1175,
      "रको": 1176,
      "टना": 1177,
      "ेव": 1178,
      "▁स्वास्थ": 1179,
      "▁विज": 1180,
      "▁कार्": 1181,
      "टो": 1182,
      "यु": 1183,
      "काश": 1184,
      "यी": 1185,
      "▁सङ्": 1186,
      "▁समस्या": 1187,
      "▁कुनै": 1188,
      "▁आफू": 1189,
      "▁उनको": 1190,
      "▁भू": 1191,
      "▁कम्प": 1192,
      "करण": 1193,
      "ेरि": 1194,
      "▁सडक": 1195,
      "▁प्रव": 1196,
      "स्ट": 1197,
      "▁थप": 1198,
      "▁संघ": 1199,
      "▁उहाँ": 1200,
      "प्त": 1201,
      "▁बैंक": 1202,
      "मो": 1203,
      "र्थिक": 1204,
      "्यो": 1205,
      "नुभयो।": 1206,
      "▁दिए।": 1207,
      "▁गा": 1208,
      "पाद": 1209,
      "भिन्न": 1210,
      "जु": 1211,
      "बहादुर": 1212,
      "हरूले": 1213,
      "▁भि": 1214,
      "ीमा": 1215,
      "वन": 1216,
      "▁आर्थिक": 1217,
      "श्यक": 1218,
      "▁छैन।": 1219,
      "▁शु": 1220,
      "चिव": 1221,
      "▁व्यव": 1222,
      "अघि": 1223,
      "ोग": 1224,
      "सकेको": 1225,
      "▁गते": 1226,
      "▁गाउँपालिका": 1227,
      "▁एमाले": 1228,
      "पताल": 1229,
      "सन": 1230,
      "▁पार": 1231,
      "न्ड": 1232,
      "▁गरे।": 1233,
      "▁अस्पताल": 1234,
      "▁विभिन्न": 1235,
      "टन": 1236,
      "▁उक्त": 1237,
      "सं": 1238,
      "▁कम्पनी": 1239,
      "▁महिला": 1240,
      "धन": 1241,
      "▁स्वास्थ्य": 1242,
      "चना": 1243,
      "▁मे": 1244,
      "▁जित": 1245,
      "र्श": 1246,
      "▁माग": 1247,
      "गरिक": 1248,
      "▁सकि": 1249,
      "ुट": 1250,
      "जिक": 1251,
      "▁दिएको": 1252,
      "▁राजनी": 1253,
      "▁ति": 1254,
      "▁कृ": 1255,
      "▁पछि": 1256,
      "के": 1257,
      "▁सामा": 1258,
      "▁डा": 1259,
      "▁टोली": 1260,
      "▁मृत": 1261,
      "▁उल्": 1262,
      "▁औ": 1263,
      "एपछि": 1264,
      "▁रि": 1265,
      "हरुले": 1266,
      "▁नागरिक": 1267,
      "▁अन्य": 1268,
      "▁रुपमा": 1269,
      "सँगै": 1270,
      "स्थित": 1271,
      "क्ता": 1272,
      "▁पाँच": 1273,
      "रहेका": 1274,
      "▁क्रम": 1275,
      "र्ग": 1276,
      "न्स": 1277,
      "नाइ": 1278,
      "▁जि": 1279,
      "बीच": 1280,
      "्रि": 1281,
      "त्त": 1282,
      "▁सम्बन्ध": 1283,
      "▁डि": 1284,
      "▁सू": 1285,
      "ञ्": 1286,
      "▁\"": 1287,
      "▁रूपमा": 1288,
      "▁मुख": 1289,
      "▁आवश्यक": 1290,
      "▁दिने": 1291,
      "न्ति": 1292,
      "रोना": 1293,
      "तन्त्र": 1294,
      "▁क्षेत्रमा": 1295,
      "सु": 1296,
      "श्च": 1297,
      "सभा": 1298,
      "कम": 1299,
      "▁सहयोग": 1300,
      "▁मूल": 1301,
      "▁बस्": 1302,
      "▁व्यक्ति": 1303,
      "न्या": 1304,
      "ख्या": 1305,
      "क्रमण": 1306,
      "▁हुँदै": 1307,
      "पि": 1308,
      "▁गर्दा": 1309,
      "ेष्ठ": 1310,
      "▁निर्देश": 1311,
      "पन": 1312,
      "न्,": 1313,
      "▁कोरोना": 1314,
      "धिक": 1315,
      "▁पूर्व": 1316,
      "▁गठ": 1317,
      "▁उत्पाद": 1318,
      "पूर्ण": 1319,
      "▁बाँ": 1320,
      "▁बस": 1321,
      "▁पोख": 1322,
      "▁प्रकाश": 1323,
      "्यान": 1324,
      "हरूको": 1325,
      "▁सार्व": 1326,
      "▁अधिकारी": 1327,
      "▁चौ": 1328,
      "र्त": 1329,
      "▁पर्य": 1330,
      "भित्र": 1331,
      "▁आधार": 1332,
      "तृ": 1333,
      "ड्": 1334,
      "▁हाल": 1335,
      "सले": 1336,
      "ूह": 1337,
      "शी": 1338,
      "▁प्रश": 1339,
      "▁महिना": 1340,
      "लेको": 1341,
      "क्षक": 1342,
      "हान": 1343,
      "▁प्रयोग": 1344,
      "नो": 1345,
      "▁तह": 1346,
      "जनिक": 1347,
      "▁व्या": 1348,
      "ङ्ग": 1349,
      "▁वडा": 1350,
      "▁बाल": 1351,
      "बि": 1352,
      "▁बे": 1353,
      "र्क": 1354,
      "▁संस्था": 1355,
      "▁चार": 1356,
      "▁बने": 1357,
      "ैले": 1358,
      "▁मन्त्री": 1359,
      "▁सार्वजनिक": 1360,
      "▁मुख्य": 1361,
      "यक": 1362,
      "▁उद्य": 1363,
      "रुद्ध": 1364,
      "▁निका": 1365,
      "▁उल्लेख": 1366,
      "समा": 1367,
      "निधि": 1368,
      "न्व": 1369,
      "▁छल": 1370,
      "▁अप": 1371,
      "सको": 1372,
      "▁पत्र": 1373,
      "▁नाम": 1374,
      "समेत": 1375,
      "कपा": 1376,
      "सर": 1377,
      "▁छ,": 1378,
      "ोष": 1379,
      "ेन्द्र": 1380,
      "▁मृत्यु": 1381,
      "पत्र": 1382,
      "मार": 1383,
      "र्ड": 1384,
      "टमा": 1385,
      "हरुको": 1386,
      "▁वटा": 1387,
      "द्या": 1388,
      "वी": 1389,
      "▁विक": 1390,
      "▁जु": 1391,
      "्री": 1392,
      "▁छा": 1393,
      "गरी": 1394,
      "▁ठू": 1395,
      "▁भइरहेको": 1396,
      "▁सां": 1397,
      "▁-": 1398,
      "▁अभि": 1399,
      "स्रो": 1400,
      "▁निर्वाचन": 1401,
      "▁ओली": 1402,
      "गम": 1403,
      "अनु": 1404,
      "▁समाज": 1405,
      "मति": 1406,
      "उँ": 1407,
      "▁अब": 1408,
      "ध्ये": 1409,
      "तर्फ": 1410,
      "▁नेतृ": 1411,
      "▁छो": 1412,
      "▁प्रहरीले": 1413,
      "▁जारी": 1414,
      "▁वै": 1415,
      "▁अन्तर": 1416,
      "▁सम्प": 1417,
      "गायत": 1418,
      "▁परी": 1419,
      "ओवादी": 1420,
      "वाद": 1421,
      "▁श्रेष्ठ": 1422,
      "▁१५": 1423,
      "काल": 1424,
      "चा": 1425,
      "▁:": 1426,
      "▁समूह": 1427,
      "▁बताएका": 1428,
      "▁बेला": 1429,
      "त्म": 1430,
      "▁नेतृत्व": 1431,
      "▁व्यवसा": 1432,
      "▁योजना": 1433,
      "▁नेकपा": 1434,
      "▁मात्रै": 1435,
      "▁पुन": 1436,
      "▁गोल": 1437,
      "▁बजार": 1438,
      "▁१२": 1439,
      "▁सन्": 1440,
      "▁हे": 1441,
      "▁प्रभाव": 1442,
      "ुल": 1443,
      "▁अघि": 1444,
      "सक्": 1445,
      "▁लगानी": 1446,
      "▁स्था": 1447,
      "तमा": 1448,
      "ट्ट": 1449,
      "▁११": 1450,
      "सन्": 1451,
      "बारे": 1452,
      "▁अद": 1453,
      "▁बजेट": 1454,
      "विधान": 1455,
      "▁क्रममा": 1456,
      "▁आएका": 1457,
      "▁त्यो": 1458,
      "▁जी": 1459,
      "▁अर्ब": 1460,
      "भर": 1461,
      "से": 1462,
      "वै": 1463,
      "▁उम्म": 1464,
      "▁सहभाग": 1465,
      "ित्": 1466,
      "ुत": 1467,
      "ेष": 1468,
      "▁पटक": 1469,
      "धी": 1470,
      "▁सर्व": 1471,
      "▁पक्ष": 1472,
      "▁एउ": 1473,
      "क्रिया": 1474,
      "े।": 1475,
      "▁दोस्रो": 1476,
      "▁भेट": 1477,
      "▁घटना": 1478,
      "▁विषयमा": 1479,
      "▁पक्र": 1480,
      "▁खे": 1481,
      "-१": 1482,
      "सन्धान": 1483,
      "▁उद्योग": 1484,
      "▁गो": 1485,
      "▁छलफल": 1486,
      "वारी": 1487,
      "▁उपचार": 1488,
      "▁संविधान": 1489,
      "▁पक्राउ": 1490,
      "▁कर्म": 1491,
      "▁कस": 1492,
      "▁अनुसन्धान": 1493,
      "▁अदाल": 1494,
      "अनुसार": 1495,
      "न्तर": 1496,
      "▁भनाइ": 1497,
      "▁उम्मेद": 1498,
      "▁उपा": 1499,
      "चारी": 1500,
      "द्धि": 1501,
      "▁सुरक्षा": 1502,
      "र्थी": 1503,
      "▁राजनीतिक": 1504,
      "झा": 1505,
      "छा": 1506,
      "▁आयोग": 1507,
      "▁विदेश": 1508,
      "▁सञ्चालन": 1509,
      "▁अर्थ": 1510,
      "कल": 1511,
      "▁ले": 1512,
      "फा": 1513,
      "▁पद": 1514,
      "▁पठ": 1515,
      "इन": 1516,
      "▁प्राप्त": 1517,
      "▁खेलमा": 1518,
      "डेल": 1519,
      "▁भनि": 1520,
      "▁पौ": 1521,
      "▁हुँदा": 1522,
      "▁मुलु": 1523,
      "▁मूल्य": 1524,
      "टे": 1525,
      "▁फिल्": 1526,
      "हाल": 1527,
      "▁विद्या": 1528,
      "▁थापा": 1529,
      "यात": 1530,
      "▁अभ": 1531,
      "▁गर्नुपर्ने": 1532,
      "▁प्रतिनिधि": 1533,
      "▁जोड": 1534,
      "साद": 1535,
      "▁भनेर": 1536,
      "ञ्ज": 1537,
      "▁नी": 1538,
      "▁पै": 1539,
      "प्रति": 1540,
      "▁लक्ष": 1541,
      "▁पर्ने": 1542,
      "▁शर्": 1543,
      "लको": 1544,
      "▁गर्नु": 1545,
      "▁विद्यालय": 1546,
      "▁राष्ट्रपति": 1547,
      "वेद": 1548,
      "',": 1549,
      "▁माओवादी": 1550,
      "▁सांसद": 1551,
      "▁करि": 1552,
      "▁कर्मचारी": 1553,
      "▁इन्": 1554,
      "▁न्य": 1555,
      "बु": 1556,
      "▁परेको": 1557,
      "▁विभाग": 1558,
      "▁थिए": 1559,
      "▁सम्झ": 1560,
      "▁खेला": 1561,
      "पना": 1562,
      "▁सक": 1563,
      "▁सम्म": 1564,
      "▁क्र": 1565,
      "▁मुलुक": 1566,
      "▁महान": 1567,
      "्वास": 1568,
      "▁रकम": 1569,
      "▁तयारी": 1570,
      "पर": 1571,
      "▁आरो": 1572,
      "▁५०": 1573,
      "▁हुन्छ।": 1574,
      "पु": 1575,
      "वेश": 1576,
      "▁अवस्थामा": 1577,
      "लगायत": 1578,
      "ल्लो": 1579,
      "▁संसद": 1580,
      "घा": 1581,
      "त्ता": 1582,
      "नन्।": 1583,
      "दर्श": 1584,
      "▁नहु": 1585,
      "र्न": 1586,
      "▁अगा": 1587,
      "▁कृष": 1588,
      "▁बनाउन": 1589,
      "▁सचिव": 1590,
      "हरूलाई": 1591,
      "▁गएको": 1592,
      "▁नेपालको": 1593,
      "माथि": 1594,
      "ीर": 1595,
      "ष्ट्रिय": 1596,
      "▁१९": 1597,
      "▁लागेको": 1598,
      "▁निक": 1599,
      "▁फिल्म": 1600,
      "ग्रह": 1601,
      "▁लेख": 1602,
      "▁उत्पादन": 1603,
      "हो": 1604,
      "लब": 1605,
      "▁दश": 1606,
      "दर": 1607,
      "राम": 1608,
      "▁भएकाले": 1609,
      "ल्या": 1610,
      "▁खेलाडी": 1611,
      "म्भ": 1612,
      "ालिका": 1613,
      "र्फत": 1614,
      "ेपछि": 1615,
      "ुवा": 1616,
      "▁संर": 1617,
      "्यो।": 1618,
      "▁प्रकाशित": 1619,
      "▁सोम": 1620,
      "▁ता": 1621,
      "▁तत्": 1622,
      "▁पुगेको": 1623,
      "▁ची": 1624,
      "वरण": 1625,
      "नुभएको": 1626,
      "▁खर्च": 1627,
      "रोध": 1628,
      "▁नग": 1629,
      "▁ऐ": 1630,
      "▁मौ": 1631,
      "▁मानि": 1632,
      "▁नीति": 1633,
      "▁प्रतियोग": 1634,
      "▁सक्ने": 1635,
      "▁ठाउँ": 1636,
      "इन्।": 1637,
      "त्या": 1638,
      "ृद्धि": 1639,
      "जग": 1640,
      "▁हुन्छ": 1641,
      "▁भएपछि": 1642,
      "युक्त": 1643,
      "▁घोष": 1644,
      "विधि": 1645,
      "हरुलाई": 1646,
      "▁उहाँले": 1647,
      "पो": 1648,
      "नामा": 1649,
      "▁स्थानमा": 1650,
      "▁ठूलो": 1651,
      "तले": 1652,
      "▁दिएका": 1653,
      "नाव": 1654,
      "▁साम": 1655,
      "▁बन्द": 1656,
      "▁भने।": 1657,
      "ाएको": 1658,
      "▁अफ": 1659,
      "▁एउटा": 1660,
      "▁केन्द्रीय": 1661,
      "प्रसाद": 1662,
      "र्ने": 1663,
      "▁प्रतियोगि": 1664,
      "▁फि": 1665,
      "रू": 1666,
      "▁कानु": 1667,
      "र्ट": 1668,
      "▁विज्ञ": 1669,
      "▁तर,": 1670,
      "▁पौडेल": 1671,
      "▁२५": 1672,
      "बल": 1673,
      "र्या": 1674,
      "▁एव": 1675,
      "यो,": 1676,
      "▁विशेष": 1677,
      "द्दा": 1678,
      "▁१३": 1679,
      "▁नेपालमा": 1680,
      "ष्ण": 1681,
      "▁देखिएको": 1682,
      "ंह": 1683,
      "मध्ये": 1684,
      "▁न्या": 1685,
      "▁सामाजिक": 1686,
      "▁लोक": 1687,
      "▁विद्यार्थी": 1688,
      "▁०": 1689,
      "▁मान": 1690,
      "शु": 1691,
      "हार": 1692,
      "▁बनाउने": 1693,
      "▁हाम": 1694,
      "ढी": 1695,
      "ौं।": 1696,
      "▁शिक्षा": 1697,
      "▁नियन्त्र": 1698,
      "▁भु": 1699,
      "▁यस्तै": 1700,
      "म्बर": 1701,
      "▁आउने": 1702,
      "▁ट्र": 1703,
      "ेरिका": 1704,
      "▁अगाडि": 1705,
      "▁शुक्र": 1706,
      "ोधन": 1707,
      "कर्ता": 1708,
      "▁आइत": 1709,
      "▁१४": 1710,
      "▁पानी": 1711,
      "▁मुद्दा": 1712,
      "▁बिक": 1713,
      "▁कार्यक्रममा": 1714,
      "▁गरिने": 1715,
      "कुमार": 1716,
      "▁क्या": 1717,
      "स्ताव": 1718,
      "▁उच्च": 1719,
      "▁उठ": 1720,
      "र्वा": 1721,
      "ंगल": 1722,
      "▁उपल": 1723,
      "ीत": 1724,
      "यम": 1725,
      "▁लगायत": 1726,
      "▁साथै": 1727,
      "▁बुध": 1728,
      "▁यहाँ": 1729,
      "▁भन्दा": 1730,
      "▁सम्पन्न": 1731,
      "▁बस्ने": 1732,
      "▁अमेरिका": 1733,
      "▁अनि": 1734,
      "▁परिवार": 1735,
      "▁पैसा": 1736,
      "▁कार": 1737,
      "▁३०": 1738,
      "▁घोषणा": 1739,
      "दाय": 1740,
      "र्गत": 1741,
      "त्रा": 1742,
      "वाह": 1743,
      "▁ब्या": 1744,
      "तिमा": 1745,
      "्राष्ट्रिय": 1746,
      "ारे": 1747,
      "बर": 1748,
      "िर": 1749,
      "▁जनता": 1750,
      "▁नेपालले": 1751,
      "ेउ": 1752,
      "▁राज्य": 1753,
      "▁अर्को": 1754,
      "▁उपलब्": 1755,
      "र्मी": 1756,
      "▁नियन्त्रण": 1757,
      "▁जाने": 1758,
      "▁चाल": 1759,
      "▁आउ": 1760,
      "▁अन्तर्राष्ट्रिय": 1761,
      "्दै": 1762,
      "एस": 1763,
      "▁सोमबार": 1764,
      "▁व्याप": 1765,
      "त्मक": 1766,
      "▁प्रस्ताव": 1767,
      "▁भएर": 1768,
      "▁यसअघि": 1769,
      "▁सम्झौ": 1770,
      "▁रे": 1771,
      "पक्ष": 1772,
      "▁सफल": 1773,
      "गामी": 1774,
      "▁बिहान": 1775,
      "विरुद्ध": 1776,
      "कृत": 1777,
      "▁कार्या": 1778,
      "सान": 1779,
      "▁बाहि": 1780,
      "▁सरकारको": 1781,
      "▁पछिल्लो": 1782,
      "र्जा": 1783,
      "काली": 1784,
      "धिका": 1785,
      "▁करिब": 1786,
      "ज्ञ": 1787,
      "▁आइतबार": 1788,
      "▁उम्मेदवार": 1789,
      "ल्ने": 1790,
      "▁दुर्": 1791,
      "▁कृषि": 1792,
      "▁समयमा": 1793,
      "▁सात": 1794,
      "ेन": 1795,
      "▁सूचना": 1796,
      "व्य": 1797,
      "▁प्रशा": 1798,
      "लले": 1799,
      "▁यस्तो": 1800,
      "▁१६": 1801,
      "ृह": 1802,
      "▁बुझ": 1803,
      "▁अझ": 1804,
      "▁पुर": 1805,
      "▁पी": 1806,
      "▁सहमति": 1807,
      "▁राम्रो": 1808,
      "▁भारतीय": 1809,
      "▁पाइ": 1810,
      "▁सहभागी": 1811,
      "▁अध्य": 1812,
      "▁जे": 1813,
      "▁प्रक्रिया": 1814,
      "डान": 1815,
      "▁वर्षीय": 1816,
      "दो": 1817,
      "▁शुक्रबार": 1818,
      "▁बुधबार": 1819,
      "ते": 1820,
      "▁आग्रह": 1821,
      "▁कार्यान्व": 1822,
      "▁तयार": 1823,
      "▁म्या": 1824,
      "तम": 1825,
      "▁दाहाल": 1826,
      "त्ति": 1827,
      "▁गठबन्ध": 1828,
      "मिक": 1829,
      "▁त्यस्तै": 1830,
      "▁अभिय": 1831,
      "पटक": 1832,
      "▁परेका": 1833,
      "▁पोखरा": 1834,
      "▁भयो।": 1835,
      "ेन्ट": 1836,
      "▁बिही": 1837,
      "कृति": 1838,
      "▁छु": 1839,
      "▁रन": 1840,
      "▁गुरु": 1841,
      "क्स": 1842,
      "▁विश्वास": 1843,
      "▁व्यवसायी": 1844,
      "ष्टि": 1845,
      "▁आगामी": 1846,
      "▁युवा": 1847,
      "▁मंगल": 1848,
      "▁फो": 1849,
      "▁छि": 1850,
      "ैं": 1851,
      "ाल्": 1852,
      "ग्गा": 1853,
      "ीको": 1854,
      "▁खरि": 1855,
      "▁छन्": 1856,
      "लामा": 1857,
      "नुपर्छ।": 1858,
      "▁लु": 1859,
      "▁नभएको": 1860,
      "सम्": 1861,
      "जक": 1862,
      "▁अधिक": 1863,
      "▁बताउनुभयो।": 1864,
      "▁बी": 1865,
      "▁कति": 1866,
      "▁भो": 1867,
      "▁खोज": 1868,
      "▁प्रकाशित:": 1869,
      "▁आधारमा": 1870,
      "▁प्रच": 1871,
      "तको": 1872,
      "▁१८": 1873,
      "राई": 1874,
      "न्थ": 1875,
      "▁सी": 1876,
      "▁संख्या": 1877,
      "्छ": 1878,
      "▁खरिद": 1879,
      "▁शनि": 1880,
      "पनि": 1881,
      "▁बढेको": 1882,
      "वर्त": 1883,
      "▁।": 1884,
      "▁गौ": 1885,
      "▁डा.": 1886,
      "▁प्रदर्श": 1887,
      "▁हामीले": 1888,
      "▁उद्": 1889,
      "▁विमान": 1890,
      "▁पर्यटक": 1891,
      "▁वर्षको": 1892,
      "▁सम्भाव": 1893,
      "▁श्री": 1894,
      "िकी": 1895,
      "▁बिक्री": 1896,
      "▁बाँकी": 1897,
      "▁डे": 1898,
      "गु": 1899,
      "▁यसै": 1900,
      "▁विकेट": 1901,
      "▁दुवै": 1902,
      "धारण": 1903,
      "ल्ला": 1904,
      "▁महानगर": 1905,
      "▁बैठकमा": 1906,
      "▁हुनु": 1907,
      "▁जनाको": 1908,
      "लाइ": 1909,
      "▁साल": 1910,
      "ारि": 1911,
      "कमा": 1912,
      "▁बिहीबार": 1913,
      "▁दर्ता": 1914,
      "▁फर्": 1915,
      "▁सबैभन्दा": 1916,
      "▁एवं": 1917,
      "दू": 1918,
      "▁गरिरहेको": 1919,
      "▁सरकारी": 1920,
      "लग": 1921,
      "▁किन": 1922,
      "▁व्यवस्थापन": 1923,
      "मित": 1924,
      "तरण": 1925,
      "▁रोजग": 1926,
      "▁मै": 1927,
      "▁शर्मा": 1928,
      "स्व": 1929,
      "▁यी": 1930,
      "त्री": 1931,
      "▁देउ": 1932,
      "परि": 1933,
      "▁दर": 1934,
      "▁समु": 1935,
      "▁जग्गा": 1936,
      "तर": 1937,
      "कर्ष": 1938,
      "ियन": 1939,
      "▁योग": 1940,
      "▁अन्ति": 1941,
      "▁सम्झौता": 1942,
      "▁क्लब": 1943,
      "▁बताउँ": 1944,
      "▁अन्तिम": 1945,
      "लव": 1946,
      "उँदै": 1947,
      "▁भट्ट": 1948,
      "▁चुनाव": 1949,
      "▁याद": 1950,
      "▁संग": 1951,
      "▁मंगलबार": 1952,
      "▁स्प": 1953,
      "▁अस": 1954,
      "▁बनेको": 1955,
      "क्रमित": 1956,
      "▁उपलब्ध": 1957,
      "▁किसान": 1958,
      "▁निर्देशन": 1959,
      "र्ति": 1960,
      "स्तु": 1961,
      "सका": 1962,
      "▁मन": 1963,
      "▁हाम्रो": 1964,
      "ंश": 1965,
      "वेदन": 1966,
      "न्दोल": 1967,
      "▁फा": 1968,
      "न्ने": 1969,
      "▁लिएर": 1970,
      "▁भाग": 1971,
      "▁उनलाई": 1972,
      "▁दाबी": 1973,
      "▁हुनेछ।": 1974,
      "▁निर": 1975,
      "लेका": 1976,
      "▁पराज": 1977,
      "श्चिम": 1978,
      "▁यही": 1979,
      "ेरो": 1980,
      "▁१७": 1981,
      "रत": 1982,
      "▁पूरा": 1983,
      "▁चाह": 1984,
      "ैनिक": 1985,
      "▁पूर्ण": 1986,
      "-२": 1987,
      "▁भ्रम": 1988,
      "▁परीक्षण": 1989,
      "▁उनका": 1990,
      "▁अंक": 1991,
      "▁२४": 1992,
      "सचिव": 1993,
      "▁फाइ": 1994,
      "ालले": 1995,
      "▁विस्त": 1996,
      "▁शनिबार": 1997,
      "▁अभियान": 1998,
      "▁अमेर": 1999,
      "रे": 2000,
      "▁कारो": 2001,
      "▁चल": 2002,
      "▁जल": 2003,
      "▁भण्ड": 2004,
      "▁निकाय": 2005,
      "ङले": 2006,
      "क्का": 2007,
      "▁पि": 2008,
      "▁चरण": 2009,
      "▁सन्द": 2010,
      "विद्य": 2011,
      "▁यादव": 2012,
      "▁त्रि": 2013,
      "ारमा": 2014,
      "▁पाउने": 2015,
      "▁पदा": 2016,
      "▁आरोप": 2017,
      "षा": 2018,
      "▁संक्रमण": 2019,
      "▁परिवर्त": 2020,
      "ङ्क": 2021,
      "▁सवारी": 2022,
      "एकी": 2023,
      "मिका": 2024,
      "मारी": 2025,
      "▁स्वी": 2026,
      "▁धा": 2027,
      "▁सोही": 2028,
      "टल": 2029,
      "कालीन": 2030,
      "प्ता": 2031,
      "▁दी": 2032,
      "▁सेना": 2033,
      "सकेका": 2034,
      "▁प्रदान": 2035,
      "▁त्यहाँ": 2036,
      "स्क": 2037,
      "ेकी": 2038,
      "▁लक्ष्य": 2039,
      "घटना": 2040,
      "जित": 2041,
      "▁सिंह": 2042,
      "सक्ने": 2043,
      "▁मिने": 2044,
      "राब": 2045,
      "▁आन्दोल": 2046,
      "▁अमेरिकी": 2047,
      "तो": 2048,
      "▁पत्रकार": 2049,
      "▁लामो": 2050,
      "▁दक्ष": 2051,
      "गो": 2052,
      "▁मध": 2053,
      "▁भित्र": 2054,
      "▁वितरण": 2055,
      "▁अन": 2056,
      "▁लिएको": 2057,
      "▁प्रत्य": 2058,
      "▁ग्रा": 2059,
      "धिवेश": 2060,
      "▁ऋ": 2061,
      "▁रहने": 2062,
      "ुत्": 2063,
      "बद्ध": 2064,
      "▁पुर्या": 2065,
      "ङको": 2066,
      "▁संस्": 2067,
      "▁भाइ": 2068,
      "ेता": 2069,
      "▁यसको": 2070,
      "पको": 2071,
      "ेस्रो": 2072,
      "▁फर": 2073,
      "▁सुन": 2074,
      "िकेट": 2075,
      "▁सहज": 2076,
      "▁राई": 2077,
      "▁जिम्म": 2078,
      "▁फै": 2079,
      "▁२०१": 2080,
      "▁घाइ": 2081,
      "जो": 2082,
      "▁२१": 2083,
      "पक": 2084,
      "▁गृह": 2085,
      "▁तेस्रो": 2086,
      "▁दुर्घटना": 2087,
      "▁ज्ञ": 2088,
      "षद्": 2089,
      "▁स्रो": 2090,
      "धे": 2091,
      "▁प्रवक्ता": 2092,
      "यण": 2093,
      "▁अध्ययन": 2094,
      "▁चला": 2095,
      "▁नम्बर": 2096,
      "▁हर": 2097,
      "▁घट": 2098,
      "▁निकै": 2099,
      "▁प्रचण्ड": 2100,
      "▁सभापति": 2101,
      "▁ताल": 2102,
      "▁कायम": 2103,
      "ल्न": 2104,
      "लेर": 2105,
      "ल्क": 2106,
      "द्र": 2107,
      "स्थल": 2108,
      "▁सम्भावना": 2109,
      "▁बताउँछन्।": 2110,
      "▁काठमाडौँ": 2111,
      "सम्बन्ध": 2112,
      "संघ": 2113,
      "पानी": 2114,
      "▁आठ": 2115,
      "धिकरण": 2116,
      "▁कारोबार": 2117,
      "▁संघीय": 2118,
      "साइ": 2119,
      "▁अधिकृत": 2120,
      "वल": 2121,
      "▁भ्रमण": 2122,
      "दार": 2123,
      "▁देउवा": 2124,
      "▁२२": 2125,
      "▁सुधार": 2126,
      "र्जन": 2127,
      "बाही": 2128,
      "▁प्रण": 2129,
      "चाल": 2130,
      "▁लिन": 2131,
      "▁४०": 2132,
      "▁फुट": 2133,
      "▁अधिकार": 2134,
      "▁घाइते": 2135,
      "▁भूमिका": 2136,
      "▁गण": 2137,
      "▁कै": 2138,
      "ताका": 2139,
      "▁'अ": 2140,
      "▁गरा": 2141,
      "▁प्राधिकरण": 2142,
      "ारायण": 2143,
      "▁प्रया": 2144,
      "▁लिग": 2145,
      "▁नहुने": 2146,
      "▁महत्व": 2147,
      "▁स्थापना": 2148,
      "वर": 2149,
      "नाथ": 2150,
      "▁क्षति": 2151,
      "▁बजे": 2152,
      "▁पढ": 2153,
      "▁प्रवेश": 2154,
      "▁अझै": 2155,
      "▁गरेपछि": 2156,
      "▁दू": 2157,
      "कको": 2158,
      "खु": 2159,
      "▁टि": 2160,
      "▁देव": 2161,
      "▁बनाएको": 2162,
      "▁मन्त्रालयले": 2163,
      "ध्यम": 2164,
      "डित": 2165,
      "र्स": 2166,
      "निर्": 2167,
      "▁गि": 2168,
      "भव": 2169,
      "धेयक": 2170,
      "▁प्रणाली": 2171,
      "▁भण्डारी": 2172,
      "ण्डकी": 2173,
      "▁त्यसपछि": 2174,
      "वे": 2175,
      "▁झा": 2176,
      "टको": 2177,
      "कार्य": 2178,
      "▁बलि": 2179,
      "▁ओलीले": 2180,
      "ेती": 2181,
      "तिर": 2182,
      "▁टु": 2183,
      "सम्बन्धी": 2184,
      "▁सहकारी": 2185,
      "तार": 2186,
      "▁एस": 2187,
      "▁विधेयक": 2188,
      "िण": 2189,
      "विधा": 2190,
      "सिया": 2191,
      "हरूमा": 2192,
      "▁कर्ण": 2193,
      "▁प्रश्न": 2194,
      "▁तथ": 2195,
      "▁पर्यटन": 2196,
      "रामी": 2197,
      "ंगा": 2198,
      "ौँ।": 2199,
      "▁सकिने": 2200,
      "▁वर्षा": 2201,
      "▁व्यक्त": 2202,
      "▁कार्की": 2203,
      "▁कर": 2204,
      "यार": 2205,
      "ैँ": 2206,
      "▁गति": 2207,
      "ल्प": 2208,
      "▁बाटो": 2209,
      "ग्री": 2210,
      "▁स्ट": 2211,
      "ुरो": 2212,
      "▁वृद्धि": 2213,
      "▁सीमा": 2214,
      "▁क्रिकेट": 2215,
      "▁सम्मेल": 2216,
      "▁ठाउँमा": 2217,
      "▁मुख्यमन्त्री": 2218,
      "▁भनेको": 2219,
      "▁सर्वो": 2220,
      "▁विवाद": 2221,
      "▁अवधि": 2222,
      "▁आश": 2223,
      "्ना": 2224,
      "▁संयुक्त": 2225,
      "▁पराजित": 2226,
      "▁सामान्य": 2227,
      "▁पुनः": 2228,
      "र्चा": 2229,
      "ुरुष": 2230,
      "▁प्रशि": 2231,
      "▁च्या": 2232,
      "▁जुन": 2233,
      "▁निजी": 2234,
      "▁बैठकले": 2235,
      "आर": 2236,
      "▁न्याय": 2237,
      "सिक": 2238,
      "रीको": 2239,
      "▁किलो": 2240,
      "सीले": 2241,
      "मार्फत": 2242,
      "▁त्यसको": 2243,
      "▁दक्षिण": 2244,
      "छ,": 2245,
      "▁जोख": 2246,
      "न्ट": 2247,
      "▁न्यू": 2248,
      "▁समाजवादी": 2249,
      "हेक": 2250,
      "ची": 2251,
      "▁क्षम": 2252,
      "मार्ग": 2253,
      "▁विस्तार": 2254,
      "▁पूर्वा": 2255,
      "रीक्षक": 2256,
      "▁२०२": 2257,
      "रेल": 2258,
      "स्पर्": 2259,
      "▁बारे": 2260,
      "▁निर्देशक": 2261,
      "▁नदी": 2262,
      "▁अग्र": 2263,
      "लर": 2264,
      "देव": 2265,
      "रिया": 2266,
      "▁सम्ब": 2267,
      "म्मा": 2268,
      "टै": 2269,
      "▁जोखिम": 2270,
      "▁बाहिर": 2271,
      "श्व": 2272,
      "▁तत्काल": 2273,
      "▁थियो": 2274,
      "▁छैन": 2275,
      "▁जिल्लामा": 2276,
      "▁मानव": 2277,
      "▁होइ": 2278,
      "णि": 2279,
      "चित्र": 2280,
      "▁उपाध्यक्ष": 2281,
      "▁सके": 2282,
      "▁पुरुष": 2283,
      "▁कारबाही": 2284,
      "▁शक्ति": 2285,
      "तावरण": 2286,
      "▁त्यही": 2287,
      "▁प्रतिस्पर्": 2288,
      "ानो": 2289,
      "▁समुदाय": 2290,
      "्दा": 2291,
      "▁गरिरहेका": 2292,
      "▁टिम": 2293,
      "ङ,": 2294,
      "ाउँदै": 2295,
      "रीले": 2296,
      "क्टर": 2297,
      "▁गठन": 2298,
      "▁वातावरण": 2299,
      "▁तुल": 2300,
      "▁खड्": 2301,
      "▁अल": 2302,
      "भिड": 2303,
      "▁कानुन": 2304,
      "▁कला": 2305,
      "▁तो": 2306,
      "डे": 2307,
      "▁जीवन": 2308,
      "हल": 2309,
      "▁बहु": 2310,
      "योजना": 2311,
      "मको": 2312,
      "लित": 2313,
      "ेवारी": 2314,
      "▁ढु": 2315,
      "कलन": 2316,
      "▁नियु": 2317,
      "▁तर्फ": 2318,
      "▁कुल": 2319,
      "योजन": 2320,
      "ालि": 2321,
      "▁बिरामी": 2322,
      "▁संरक्षण": 2323,
      "▁समाधान": 2324,
      "सद्": 2325,
      "गी": 2326,
      "▁सुविधा": 2327,
      "▁प्रविधि": 2328,
      "▁मना": 2329,
      "▁टा": 2330,
      "हन": 2331,
      "▁श्रेष्ठले": 2332,
      "र्ज": 2333,
      "▁स्वतन्त्र": 2334,
      "▁ऋण": 2335,
      "▁लिने": 2336,
      "शील": 2337,
      "▁बजारमा": 2338,
      "शाख": 2339,
      "▁टे": 2340,
      "▁अहिलेसम्म": 2341,
      "▁२३": 2342,
      "▁चौध": 2343,
      "▁असार": 2344,
      "▁विदेशी": 2345,
      "▁संश": 2346,
      "नौ": 2347,
      "▁जिम्मेवारी": 2348,
      "▁नेपालका": 2349,
      "लाको": 2350,
      "याधी": 2351,
      "▁आफ्ना": 2352,
      "▁निरन्तर": 2353,
      "▁व्यापार": 2354,
      "▁गुमा": 2355,
      "ेसम्म": 2356,
      "▁खाने": 2357,
      "नलाई": 2358,
      "स्ती": 2359,
      "तिहा": 2360,
      "पाई": 2361,
      "▁समितिले": 2362,
      "▁सर्वोच्च": 2363,
      "पण": 2364,
      "म्भीर": 2365,
      "▁चित": 2366,
      "▁सुझा": 2367,
      "▁बराब": 2368,
      "▁चै": 2369,
      "▁संक्रमित": 2370,
      "▁२७": 2371,
      "▁२८": 2372,
      "▁गीत": 2373,
      "▁भट्टराई": 2374,
      "▁त्यसै": 2375,
      "▁श्रम": 2376,
      "▁साँ": 2377,
      "द्धा": 2378,
      "▁गम्भीर": 2379,
      "▁पूर्वाधार": 2380,
      "▁नं": 2381,
      "▁डो": 2382,
      "एन": 2383,
      "▁ज्यान": 2384,
      "फाइ": 2385,
      "▁हरेक": 2386,
      "▁कसरी": 2387,
      "▁भाइर": 2388,
      "▁हिमा": 2389,
      "ँड": 2390,
      "▁कमि": 2391,
      "पद": 2392,
      "भू": 2393,
      "▁उडान": 2394,
      "▁शी": 2395,
      "स्थिति": 2396,
      "्ले": 2397,
      "▁भई": 2398,
      "याधीश": 2399,
      "एम": 2400,
      "▁राति": 2401,
      "ढा": 2402,
      "▁रोक": 2403,
      "▁कर्णाली": 2404,
      "▁अस्पतालमा": 2405,
      "▁हस्ता": 2406,
      "▁प्रदर्शन": 2407,
      "वान": 2408,
      "छु": 2409,
      "▁बसेको": 2410,
      "▁कार्यान्वयन": 2411,
      "नाले": 2412,
      "अन्त": 2413,
      "िल्लो": 2414,
      "आई": 2415,
      "▁स्पष्ट": 2416,
      "▁नजिक": 2417,
      "स्त्र": 2418,
      "▁जस": 2419,
      "▁गाडी": 2420,
      "▁सम्बन्धित": 2421,
      "िएका": 2422,
      "▁प्रयास": 2423,
      "▁हो,": 2424,
      "▁प्राथ": 2425,
      "ंका": 2426,
      "▁चलचित्र": 2427,
      "क्षित": 2428,
      "▁उम": 2429,
      "▁विश्वक": 2430,
      "हरुमा": 2431,
      "▁परिवर्तन": 2432,
      "योजक": 2433,
      "ज्य": 2434,
      "कृष्ट": 2435,
      "कले": 2436,
      "▁क्षेत्रको": 2437,
      "▁घण्": 2438,
      "▁तोक": 2439,
      "▁आदेश": 2440,
      "▁विगत": 2441,
      "▁यसले": 2442,
      "▁थालेको": 2443,
      "▁प्रमाण": 2444,
      "सरमा": 2445,
      "▁नदि": 2446,
      "िन": 2447,
      "▁प्राथमिक": 2448,
      "▁पुग्ने": 2449,
      "▁सकेको": 2450,
      "▁सिफ": 2451,
      "कुद": 2452,
      "▁२६": 2453,
      "अन्तर्गत": 2454,
      "▁शे": 2455,
      "▁शान्ति": 2456,
      "▁एन": 2457,
      "ल्दै": 2458,
      "ेज": 2459,
      "▁रोजगारी": 2460,
      "▁कम्पनीले": 2461,
      "न्तरिक": 2462,
      "▁६०": 2463,
      "▁ध्य": 2464,
      "▁दैनिक": 2465,
      "▁पार्टीको": 2466,
      "धु": 2467,
      "▁प्रतिनिधिसभा": 2468,
      "▁वरि": 2469,
      "▁मैले": 2470,
      "▁व्यवसाय": 2471,
      "डियो": 2472,
      "▁सर्": 2473,
      "▁बालब": 2474,
      "▁खेलकुद": 2475,
      "▁ध्यान": 2476,
      "▁खोप": 2477,
      "▁चिनि": 2478,
      "▁अभाव": 2479,
      "ङमा": 2480,
      "▁निर्वाचनमा": 2481,
      "ेलु": 2482,
      "मत": 2483,
      "▁हत्या": 2484,
      "वासी": 2485,
      "▁रोग": 2486,
      "▁फेरि": 2487,
      "देशिक": 2488,
      "▁विद्युत्": 2489,
      "▁गण्डकी": 2490,
      "▁टोलीले": 2491,
      "▁आन्तरिक": 2492,
      "▁मानिस": 2493,
      "▁जन्": 2494,
      "गमन": 2495,
      "चार्य": 2496,
      "विक": 2497,
      "▁मन्द": 2498,
      "▁बच": 2499,
      "▁रूप": 2500,
      "▁पुष्": 2501,
      "ीकरण": 2502,
      "▁वर्षमा": 2503,
      "▁आक्रमण": 2504,
      "▁घा": 2505,
      "▁संसदीय": 2506,
      "▁मनो": 2507,
      "▁हरा": 2508,
      "▁घि": 2509,
      "▁बैंकले": 2510,
      "▁बारेमा": 2511,
      "▁मध्य": 2512,
      "रीमा": 2513,
      "▁सुझाव": 2514,
      "▁फिर्ता": 2515,
      "ष्टा": 2516,
      "▁केपी": 2517,
      "▁तामा": 2518,
      "▁शीर्ष": 2519,
      "▁वित्त": 2520,
      "ाइएको": 2521,
      "▁पीडित": 2522,
      "▁सिफारि": 2523,
      "▁सङ्घ": 2524,
      "▁निर्वाचित": 2525,
      "बेला": 2526,
      "▁देखिन्छ।": 2527,
      "▁छोरा": 2528,
      "क्क": 2529,
      "▁विरोध": 2530,
      "स्तुत": 2531,
      "िनी": 2532,
      "▁पार्टीका": 2533,
      "▁३५": 2534,
      "न्ज": 2535,
      "▁खड्का": 2536,
      "ममा": 2537,
      "▁समन्व": 2538,
      "▁समर्थ": 2539,
      "▁त्यसैले": 2540,
      "▁कृष्ण": 2541,
      "▁पुगेका": 2542,
      "▁नाममा": 2543,
      "▁भइसकेको": 2544,
      "▁खुला": 2545,
      "▁वन": 2546,
      "▁पौडेलले": 2547,
      "▁गराउने": 2548,
      "मती": 2549,
      "▁बालबालिका": 2550,
      "▁नसकेको": 2551,
      "▁सम्बोधन": 2552,
      "ठा": 2553,
      "▁संगठ": 2554,
      "▁संरचना": 2555,
      "▁प्रस्तुत": 2556,
      "▁कोइ": 2557,
      "▁दिइ": 2558,
      "चित": 2559,
      "▁संसद्": 2560,
      "▁सेयर": 2561,
      "▁विद्युत": 2562,
      "▁मतदान": 2563,
      "सँगको": 2564,
      "▁थापाले": 2565,
      "▁छैनन्।": 2566,
      "▁दशम": 2567,
      "▁घण्टा": 2568,
      "▁प्रभावित": 2569,
      "▁'म": 2570,
      "▁वैशाख": 2571,
      "▁उपत्य": 2572,
      "▁कोभिड": 2573,
      "▁पाएको": 2574,
      "▁मेरो": 2575,
      "ेलि": 2576,
      "▁इज": 2577,
      "▁'हा": 2578,
      "देश्य": 2579,
      "▁तथ्या": 2580,
      "ीले": 2581,
      "कर्मी": 2582,
      "▁महानगरपालिका": 2583,
      "▁धन": 2584,
      "▁बताइएको": 2585,
      "▁संक": 2586,
      "▁आफूले": 2587,
      "▁समितिको": 2588,
      "▁लै": 2589,
      "▁बनाएर": 2590,
      "▁प्रतिस्पर्धा": 2591,
      "▁मैदान": 2592,
      "किस्ता": 2593,
      "पश्चिम": 2594,
      "▁छन्,": 2595,
      "वाइ": 2596,
      "▁पोखरेल": 2597,
      "फो": 2598,
      "▁आँ": 2599,
      "▁अति": 2600,
      "लाले": 2601,
      "ल,": 2602,
      "▁आई": 2603,
      "▁संयोजक": 2604,
      "भो": 2605,
      "▁छुट": 2606,
      "▁समन्वय": 2607,
      "▁लो": 2608,
      "▁बर्": 2609,
      "▁यात्रा": 2610,
      "▁भौ": 2611,
      "▁घरमा": 2612,
      "▁हात": 2613,
      "▁प्रदेशका": 2614,
      "लग्न": 2615,
      "▁पाण्ड": 2616,
      "▁पहिले": 2617,
      "▁२९": 2618,
      "▁अरु": 2619,
      "▁औं": 2620,
      "▁मिनेटमा": 2621,
      "▁भए।": 2622,
      "▁शै": 2623,
      "▁मिटर": 2624,
      "द्वार": 2625,
      "टेड": 2626,
      "▁नौ": 2627,
      "▁एम": 2628,
      "तका": 2629,
      "▁पशु": 2630,
      "▁उद्ध": 2631,
      "▁राजधान": 2632,
      "▁भर्": 2633,
      "▁लाग्ने": 2634,
      "▁जस्तो": 2635,
      "▁बोर्ड": 2636,
      "▁उपत्यका": 2637,
      "ैर": 2638,
      "▁चो": 2639,
      "▁खान": 2640,
      "्युनि": 2641,
      "तियार": 2642,
      "▁फर्कि": 2643,
      "▁गराउन": 2644,
      "▁कोष": 2645,
      "्रे": 2646,
      "▁अन्त्य": 2647,
      "▁उत्कृष्ट": 2648,
      "▁याता": 2649,
      "▁पर्व": 2650,
      "मिटर": 2651,
      "▁सश": 2652,
      "▁नव": 2653,
      "▁प्या": 2654,
      "कृतिक": 2655,
      "▁अपरा": 2656,
      "▁हुनुपर्ने": 2657,
      "▁छान": 2658,
      "▁चीन": 2659,
      "च्छ": 2660,
      "▁२०८": 2661,
      "ँ।": 2662,
      "राष्ट्र": 2663,
      "▁कार्यालयले": 2664,
      "▁मन्त्रि": 2665,
      "▁सम्मान": 2666,
      "दु": 2667,
      "कम्प": 2668,
      "िकित्": 2669,
      "▁आउन": 2670,
      "एफ": 2671,
      "्नु": 2672,
      "▁वीर": 2673,
      "▁थिइन्।": 2674,
      "▁सञ्ज": 2675,
      "▁देशको": 2676,
      "▁परीक्षा": 2677,
      "▁भक्त": 2678,
      "▁अन्तर्गत": 2679,
      "▁आफ्नै": 2680,
      "▁बाढी": 2681,
      "न्तरण": 2682,
      "▁भ्र": 2683,
      "छन्,": 2684,
      "स्थान": 2685,
      "▁पहिरो": 2686,
      "नल": 2687,
      "▁संलग्न": 2688,
      "▁सत्ता": 2689,
      "▁सुनि": 2690,
      "पय": 2691,
      "चान": 2692,
      "▁भी": 2693,
      "▁आयोगले": 2694,
      "▁तपाई": 2695,
      "▁सहित": 2696,
      "▁लगायतका": 2697,
      "▁राख्ने": 2698,
      "▁उपम": 2699,
      "▁थाहा": 2700,
      "▁सच": 2701,
      "श्चित": 2702,
      "▁अख": 2703,
      "▁विवरण": 2704,
      "▁शाखा": 2705,
      "▁मन्त्रिपरि": 2706,
      "▁दशमलव": 2707,
      "▁कांग्रेसका": 2708,
      "मेन्ट": 2709,
      "▁हालसम्म": 2710,
      "▁राखिएको": 2711,
      "▁अवसर": 2712,
      "▁चिकित्": 2713,
      "▁सोच": 2714,
      "▁पुष्प": 2715,
      "सिर": 2716,
      "▁आयात": 2717,
      "▁औष": 2718,
      "▁छनो": 2719,
      "जर": 2720,
      "▁गठबन्धन": 2721,
      "▁राखेर": 2722,
      "▁यातायात": 2723,
      "▁रहे": 2724,
      "ण्डा": 2725,
      "ता,": 2726,
      "▁सञ्चालनमा": 2727,
      "त्रु": 2728,
      "थो": 2729,
      "▁कोइरा": 2730,
      "▁बीच": 2731,
      "▁अवसरमा": 2732,
      "विद्यालय": 2733,
      "▁कमिटी": 2734,
      "पान": 2735,
      "▁माघ": 2736,
      "▁पाकिस्ता": 2737,
      "रीय": 2738,
      "▁दिनमा": 2739,
      "▁दृ": 2740,
      "▁बताउँदै": 2741,
      "जेन्": 2742,
      "ित्व": 2743,
      "▁राह": 2744,
      "▁निष्": 2745,
      "▁बाध्य": 2746,
      "▁ट्रा": 2747,
      "▁टी": 2748,
      "▁वित्तीय": 2749,
      "धिवेशन": 2750,
      "ध्या": 2751,
      "▁अघ": 2752,
      "उनु": 2753,
      "▁दिनुभयो।": 2754,
      "▁कतिपय": 2755,
      "▁समितिका": 2756,
      "क्रिय": 2757,
      "▁सामग्री": 2758,
      "▁क्षेत्रका": 2759,
      "▁धार": 2760,
      "मीले": 2761,
      "▁ऊ": 2762,
      "पित": 2763,
      "▁दर्श": 2764,
      "▁गर्द": 2765,
      "▁महत्वपूर्ण": 2766,
      "▁पुष्टि": 2767,
      "▁दिउँ": 2768,
      "▁भनिएको": 2769,
      "▁ओभ": 2770,
      "▁उत्तर": 2771,
      "▁शिक्षक": 2772,
      "▁गुना": 2773,
      "ेले": 2774,
      "ल्यान्ड": 2775,
      "▁यति": 2776,
      "ेदेखि": 2777,
      "▁राखेको": 2778,
      "▁शुरु": 2779,
      "▁प्रतिवेदन": 2780,
      "▁जनताको": 2781,
      "▁प्रदेशमा": 2782,
      "▁महासंघ": 2783,
      "▁समाचार": 2784,
      "▁उद्देश्य": 2785,
      "▁साह": 2786,
      "▁दिइएको": 2787,
      "▁नो": 2788,
      "▁पक्षमा": 2789,
      "▁संशोधन": 2790,
      "▁सहभागि": 2791,
      "▁प्रदेशसभा": 2792,
      "दाता": 2793,
      "काम": 2794,
      "▁वरिष्ठ": 2795,
      "▁प्रो": 2796,
      "▁गौतम": 2797,
      "▁कार्यकारी": 2798,
      "स्कार": 2799,
      "▁ई": 2800,
      "गुन": 2801,
      "▁भवन": 2802,
      "▁अधिकारीले": 2803,
      "▁कम्युनि": 2804,
      "▁स्त": 2805,
      "▁तत्कालीन": 2806,
      "▁भारतको": 2807,
      "▁विरा": 2808,
      "ाउनु": 2809,
      "्रु": 2810,
      "नुपर्छ": 2811,
      "▁विप": 2812,
      "ष्टाचार": 2813,
      "▁तर्फबाट": 2814,
      "▁चिनियाँ": 2815,
      "▁दिँदै": 2816,
      "▁हरि": 2817,
      "▁सहा": 2818,
      "विधिक": 2819,
      "डो": 2820,
      "लाका": 2821,
      "▁बद": 2822,
      "साय": 2823,
      "भु": 2824,
      "▁आत्म": 2825,
      "ल्य": 2826,
      "▁थु": 2827,
      "▁आम": 2828,
      "वाफ": 2829,
      "▁ललित": 2830,
      "▁दिउँसो": 2831,
      "▁मौसम": 2832,
      "षण": 2833,
      "भी": 2834,
      "▁शव": 2835,
      "▁बलमा": 2836,
      "कारा": 2837,
      "▁यस्ता": 2838,
      "लाल": 2839,
      "▁गुण": 2840,
      "ौं,": 2841,
      "दानी": 2842,
      "कोट": 2843,
      "▁नियन्त्रणमा": 2844,
      "▁हट": 2845,
      "▁यसलाई": 2846,
      "▁फरक": 2847,
      "▁सरकारलाई": 2848,
      "▁विज्ञप्": 2849,
      "बाटै": 2850,
      "ेश्व": 2851,
      "▁३१": 2852,
      "▁योगदान": 2853,
      "वटा": 2854,
      "▁प्रशासन": 2855,
      "▁सहकार्य": 2856,
      "लका": 2857,
      "▁प्रहार": 2858,
      "दूर": 2859,
      "▁सिर्": 2860,
      "▁अर्थतन्त्र": 2861,
      "▁मिला": 2862,
      "रान": 2863,
      "▁प्रे": 2864,
      "▁अर्था": 2865,
      "▁नारायण": 2866,
      "▁विश्वविद्यालय": 2867,
      "डिया": 2868,
      "▁चाहि": 2869,
      "ीकृत": 2870,
      "▁असर": 2871,
      "सव": 2872,
      "▁मं": 2873,
      "जिम": 2874,
      "▁दिव": 2875,
      "म्बिनी": 2876,
      "यता": 2877,
      "दिन": 2878,
      "▁मन्त्रालयका": 2879,
      "▁अनुमति": 2880,
      "▁अनुमान": 2881,
      "▁सन्त": 2882,
      "एकाले": 2883,
      "▁जवाफ": 2884,
      "▁शाह": 2885,
      "▁आचार्य": 2886,
      "▁हेर्": 2887,
      "▁मान्छ": 2888,
      "▁बताइन्।": 2889,
      "▁पाल": 2890,
      "▁७०": 2891,
      "▁लामि": 2892,
      "▁प्रतियोगिता": 2893,
      "भार": 2894,
      "▁विनि": 2895,
      "रले": 2896,
      "▁ल्याउन": 2897,
      "▁चुनौ": 2898,
      "छन्": 2899,
      "▁भुक्ता": 2900,
      "▁उनीहरू": 2901,
      "▁मलाई": 2902,
      "▁चरणमा": 2903,
      "▁प्रतिष्ठ": 2904,
      "▁घु": 2905,
      "न्दी": 2906,
      "औं": 2907,
      "▁आफूलाई": 2908,
      "▁सञ्चार": 2909,
      "▁ऐन": 2910,
      "शि": 2911,
      "▁गर्ने,": 2912,
      "▁प्राविधिक": 2913,
      "▁गरेकी": 2914,
      "न्त्रिक": 2915,
      "छाने": 2916,
      "▁उमेर": 2917,
      "▁भूकम्प": 2918,
      "▁जस्ता": 2919,
      "▁लाइ": 2920,
      "▁साता": 2921,
      "▁की": 2922,
      "▁कमा": 2923,
      "▁अर्का": 2924,
      "▁पुल": 2925,
      "▁सभामुख": 2926,
      "पोर्ट": 2927,
      "▁गुनासो": 2928,
      "▁पदाधिका": 2929,
      "▁नपा": 2930,
      "▁लामिछाने": 2931,
      "▁जेठ": 2932,
      "▁नियम": 2933,
      "जमा": 2934,
      "▁पेश": 2935,
      "▁लुम्बिनी": 2936,
      "▁पहिचान": 2937,
      "▁राख्न": 2938,
      "सू": 2939,
      "▁खेती": 2940,
      "दे": 2941,
      "ट्टा": 2942,
      "▁देशका": 2943,
      "▁आमा": 2944,
      "▁छ।'": 2945,
      "▁३२": 2946,
      "▁पहा": 2947,
      "▁आवश्यकता": 2948,
      "कारात्मक": 2949,
      "▁सुना": 2950,
      "▁मोटर": 2951,
      "मोजिम": 2952,
      "▁बाट": 2953,
      "▁सिफारिस": 2954,
      "▁पुस": 2955,
      "▁कले": 2956,
      "धानिक": 2957,
      "पूर्व": 2958,
      "▁साउ": 2959,
      "ेप": 2960,
      "बाहेक": 2961,
      "▁परियोजना": 2962,
      "▁क्षमता": 2963,
      "▁महामारी": 2964,
      "ँजी": 2965,
      "नाको": 2966,
      "▁यसमा": 2967,
      "▁फर्क": 2968,
      "▁बन्न": 2969,
      "▁कार्यकर्ता": 2970,
      "▁रोक्": 2971,
      "▁जनालाई": 2972,
      "तह": 2973,
      "▁बनेका": 2974,
      "▁लागू": 2975,
      "▁यात्रु": 2976,
      "पूर्ति": 2977,
      "लादेश": 2978,
      "▁प्रतिबद्ध": 2979,
      "▁ल्याएको": 2980,
      "▁मिल्": 2981,
      "ग्रा": 2982,
      "▁८०": 2983,
      "▁अदालत": 2984,
      "▁भयो": 2985,
      "म्बा": 2986,
      "▁वैदेशिक": 2987,
      "▁छाड": 2988,
      "▁साँझ": 2989,
      "द्वारा": 2990,
      "▁फे": 2991,
      "▁खण्ड": 2992,
      "▁दलका": 2993,
      "▁कार्यालयमा": 2994,
      "▁राजनीति": 2995,
      "ला,": 2996,
      "▁किलोमिटर": 2997,
      "न्दु": 2998,
      "पर्ने": 2999,
      "▁सक्रिय": 3000,
      "▁भ्रष्टाचार": 3001,
      "▁विमानस्थल": 3002,
      "▁महो": 3003,
      "▁फुटबल": 3004,
      "▁देशमा": 3005,
      "▁आयोजित": 3006,
      "▁खर्": 3007,
      "▁शर्माले": 3008,
      "▁सिर्जना": 3009,
      "▁२०६": 3010,
      "▁निम्": 3011,
      "दौ": 3012,
      "▁वस्तु": 3013,
      "▁शेर": 3014,
      "▁बोला": 3015,
      "▁सुदूर": 3016,
      "▁विजयी": 3017,
      "▁संस्कृति": 3018,
      "▁भन्नुभ": 3019,
      "▁छौं।": 3020,
      "▁अनुदान": 3021,
      "▁अधिकांश": 3022,
      "री,": 3023,
      "▁बन्ने": 3024,
      "▁लिएका": 3025,
      "▁बताएको": 3026,
      "ालको": 3027,
      "खो": 3028,
      "तान्त्रिक": 3029,
      "▁प्रभावकारी": 3030,
      "▁कर्जा": 3031,
      "▁भनेका": 3032,
      "▁थाल": 3033,
      "सिल": 3034,
      "जोर": 3035,
      "▁नियमित": 3036,
      "▁मधेस": 3037,
      "▁थाले": 3038,
      "-०": 3039,
      "▁त्यति": 3040,
      "▁भुक्तानी": 3041,
      "टिङ": 3042,
      "▁सम्पूर्ण": 3043,
      "कुल": 3044,
      "चालन": 3045,
      "▁भौतिक": 3046,
      "दल": 3047,
      "▁सकिन्छ।": 3048,
      "▁सचेत": 3049,
      "▁उपप्र": 3050,
      "▁एकीकृत": 3051,
      "▁उपाधि": 3052,
      "कमल": 3053,
      "र्भ": 3054,
      "▁चुनौती": 3055,
      "▁असो": 3056,
      "ंसा": 3057,
      "▁ग्राह": 3058,
      "मले": 3059,
      "किङ": 3060,
      "ाउँदा": 3061,
      "▁डु": 3062,
      "▁कक्षा": 3063,
      "मका": 3064,
      "▁साइ": 3065,
      "▁ढि": 3066,
      "▁धारणा": 3067,
      "▁यसरी": 3068,
      "▁व्यवस्थाप": 3069,
      "▁कप्ता": 3070,
      "▁नेतृत्वको": 3071,
      "▁अघिल्लो": 3072,
      "▁प्रतियोगितामा": 3073,
      "णिज्य": 3074,
      "▁प्रजा": 3075,
      "▁समावेश": 3076,
      "्यास": 3077,
      "▁माध्यम": 3078,
      "▁फेला": 3079,
      "▁कांग्रेसले": 3080,
      "सिय": 3081,
      "सीको": 3082,
      "▁कम्पनीको": 3083,
      "▁यसैगरी": 3084,
      "▁४५": 3085,
      "क्षर": 3086,
      "▁कार्यान्वय": 3087,
      "▁इन्टर": 3088,
      "▁माथि": 3089,
      "▁गएका": 3090,
      "पुरमा": 3091,
      "▁राजी": 3092,
      "ीया": 3093,
      "टनगर": 3094,
      "▁कट": 3095,
      "▁पाएका": 3096,
      "▁अवधिमा": 3097,
      "▁चर्चा": 3098,
      "▁स्रोत": 3099,
      "▁सामु": 3100,
      "▁घिमि": 3101,
      "िने": 3102,
      "▁विचार": 3103,
      "▁वार्ष": 3104,
      "लगायतका": 3105,
      "▁पुष्पकमल": 3106,
      "▁पहल": 3107,
      "ानि": 3108,
      "▁एयर": 3109,
      "▁सचिवालय": 3110,
      "वाई": 3111,
      "ेसन": 3112,
      "▁पुरा": 3113,
      "▁बढाउन": 3114,
      "▁पे": 3115,
      "▁आन्दोलन": 3116,
      "डमा": 3117,
      "▁ठूला": 3118,
      "▁पारित": 3119,
      "▁गैर": 3120,
      "तीमा": 3121,
      "▁स्या": 3122,
      "▁एक्": 3123,
      "▁भदौ": 3124,
      "▁एमालेका": 3125,
      "▁गर्नुभएको": 3126,
      "▁ढकाल": 3127,
      "▁आकर्ष": 3128,
      "▁फु": 3129,
      "लिक": 3130,
      "ज्ञा": 3131,
      "▁ल्याउने": 3132,
      "▁ब्य": 3133,
      "▁एकै": 3134,
      "▁संकलन": 3135,
      "▁खन": 3136,
      "▁बनाइ": 3137,
      "▁जब": 3138,
      "▁होइन": 3139,
      "▁भे": 3140,
      "▁बंग": 3141,
      "▁सङ्ख्या": 3142,
      "▁सुदूरपश्चिम": 3143,
      "▁आउँ": 3144,
      "▁जीव": 3145,
      "▁राजस्व": 3146,
      "क्य": 3147,
      "▁छनोट": 3148,
      "▁नहुँदा": 3149,
      "▁ठा": 3150,
      "▁धर्म": 3151,
      "▁नगरपालिका-": 3152,
      "▁पुरस्कार": 3153,
      "▁सञ्जाल": 3154,
      "▁बल": 3155,
      "च्चा": 3156,
      "▁अदालतले": 3157,
      "▁कम्": 3158,
      "▁२०७९": 3159,
      "▁२००": 3160,
      "लै": 3161,
      "▁सरो": 3162,
      "पदण्ड": 3163,
      "नू": 3164,
      "▁प्रदेशको": 3165,
      "▁प्रसार": 3166,
      "▁राजधानी": 3167,
      "▁धान": 3168,
      "▁यसका": 3169,
      "ेदार": 3170,
      "▁लगाउने": 3171,
      "ानु": 3172,
      "जुरी": 3173,
      "पक्षी": 3174,
      "▁नसक्ने": 3175,
      "▁त्यसलाई": 3176,
      "न्तु": 3177,
      "▁उद्धार": 3178,
      "▁मन्त्रिपरिषद्": 3179,
      "▁गुणस्त": 3180,
      "▁जम्मा": 3181,
      "▁कमजोर": 3182,
      "▁भिडियो": 3183,
      "▁डलर": 3184,
      "▁होटल": 3185,
      "▁कार्यालयका": 3186,
      "ित्त": 3187,
      "▁पालिका": 3188,
      "▁सम्बन्धमा": 3189,
      "नगर": 3190,
      "▁मापदण्ड": 3191,
      "▁दलको": 3192,
      "▁नियुक्त": 3193,
      "नलमा": 3194,
      "▁है": 3195,
      "जको": 3196,
      "-१९": 3197,
      "▁विराटनगर": 3198,
      "▁व्याव": 3199,
      "जे": 3200,
      "▁छानबि": 3201,
      "ल्लाह": 3202,
      "▁प्रशिक्षक": 3203,
      "▁उपभो": 3204,
      "▁३३": 3205,
      "यल": 3206,
      "▁शाही": 3207,
      "मात्र": 3208,
      "▁वर्षीया": 3209,
      "▁विभागले": 3210,
      "▁नेतृत्वमा": 3211,
      "कलाई": 3212,
      "लीमा": 3213,
      "▁खेल्ने": 3214,
      "▁युरो": 3215,
      "▁न्यायाधीश": 3216,
      "गढी": 3217,
      "▁नाका": 3218,
      "▁'प्र": 3219,
      "▁दबा": 3220,
      "्वी": 3221,
      "हे": 3222,
      "▁ऊर्जा": 3223,
      "▁सङ्क्रमण": 3224,
      "मिला": 3225,
      "▁मेड": 3226,
      "▁वे": 3227,
      "सम्मको": 3228,
      "▁च्याम्प": 3229,
      "▁नप": 3230,
      "▁उम्मेदवारी": 3231,
      "▁आप": 3232,
      "▁भूमि": 3233,
      "धिकार": 3234,
      "पुरको": 3235,
      "▁देखा": 3236,
      "▁तहमा": 3237,
      "व्र": 3238,
      "ृद्ध": 3239,
      "▁कलाकार": 3240,
      "▁महासचिव": 3241,
      "▁वार्ता": 3242,
      "▁जन्म": 3243,
      "▁प्रतिशतले": 3244,
      "▁सुरक्षित": 3245,
      "▁सालमा": 3246,
      "▁स्थायी": 3247,
      "होर": 3248,
      "▁बढ्दै": 3249,
      "▁सशस्त्र": 3250,
      "▁हेर": 3251,
      "\",": 3252,
      "▁निगम": 3253,
      "▁कप": 3254,
      "▁चिकित्सक": 3255,
      "ँडा": 3256,
      "▁समान": 3257,
      "ङ्गा": 3258,
      "▁लगाएको": 3259,
      "▁पदार्थ": 3260,
      "),": 3261,
      "शाखा": 3262,
      "▁सहभागिता": 3263,
      "दन": 3264,
      "▁पेट": 3265,
      "▁उनीहरूले": 3266,
      "▁भन्सार": 3267,
      "▁प्रत्यक्ष": 3268,
      "▁न्यून": 3269,
      "▁त्यसैगरी": 3270,
      "▁ओभरमा": 3271,
      "▁मेयर": 3272,
      "▁जानु": 3273,
      "न्ता": 3274,
      "▁एकता": 3275,
      "कड": 3276,
      "▁उद्घा": 3277,
      "▁रूपैयाँ": 3278,
      "े,": 3279,
      "▁भाषा": 3280,
      "▁गराएको": 3281,
      "▁तहको": 3282,
      "▁मिति": 3283,
      "▁चालु": 3284,
      "सङ्": 3285,
      "▁साउन": 3286,
      "▁मान्य": 3287,
      "▁शिव": 3288,
      "▁उनीहरु": 3289,
      "फ्": 3290,
      "▁टिक": 3291,
      "टाइ": 3292,
      "ेटि": 3293,
      "िकल": 3294,
      "▁जिल्लाको": 3295,
      "▁जनक": 3296,
      "ङका": 3297,
      "▁'य": 3298,
      "परेको": 3299,
      "▁पारेको": 3300,
      "▁थिएन।": 3301,
      "▁प्रहरीको": 3302,
      "▁होला": 3303,
      "उँदा": 3304,
      "▁खानेपानी": 3305,
      "▁बढ्ने": 3306,
      "त्तिक": 3307,
      "नेपाल": 3308,
      "ट्र": 3309,
      "▁चैत": 3310,
      "▁ठे": 3311,
      "▁वाणिज्य": 3312,
      "▁बह": 3313,
      "▁नर": 3314,
      "▁गतिविधि": 3315,
      "चारिक": 3316,
      "▁गरिएका": 3317,
      "▁कठ": 3318,
      "▁प्रतिष्ठान": 3319,
      "▁प्रत्येक": 3320,
      "▁मल्": 3321,
      "▁जिल्लाका": 3322,
      "▁चन्द्र": 3323,
      "▁पस": 3324,
      "▁जापान": 3325,
      "▁पूजा": 3326,
      "▁महिनामा": 3327,
      "▁रनको": 3328,
      "साधारण": 3329,
      "▁प्रशास": 3330,
      "▁बैंकको": 3331,
      "म्परा": 3332,
      "चन्द्र": 3333,
      "▁युव": 3334,
      "▁बलियो": 3335,
      "नुहु": 3336,
      "▁प्": 3337,
      "▁जति": 3338,
      "▁होइन,": 3339,
      "▁औषधि": 3340,
      "▁खोजी": 3341,
      "भिजन": 3342,
      "▁'स": 3343,
      "▁मंसिर": 3344,
      "सलाई": 3345,
      "▁स्वदेश": 3346,
      "ट्टै": 3347,
      "▁३६": 3348,
      "▁विरुद्ध": 3349,
      "गमती": 3350,
      "्मी": 3351,
      "सहितको": 3352,
      "▁'ए": 3353,
      "▁कालो": 3354,
      "▁केन्द्रका": 3355,
      "▁आम्": 3356,
      "▁महाशाखा": 3357,
      "▁नति": 3358,
      "क्सि": 3359,
      "आइ": 3360,
      "▁काग": 3361,
      "▁कोरिया": 3362,
      "हुँ": 3363,
      "▁फागुन": 3364,
      "ारु": 3365,
      "बीचको": 3366,
      "▁वार्षिक": 3367,
      "▁इतिहा": 3368,
      "▁लागेका": 3369,
      "वैधानिक": 3370,
      "▁२०७४": 3371,
      "शुल्क": 3372,
      "▁अपे": 3373,
      "पयोग": 3374,
      "स्की": 3375,
      "ाउनुपर्ने": 3376,
      "▁घरेलु": 3377,
      "▁परिषद्": 3378,
      "▁स्थिति": 3379,
      "▁परम्परा": 3380,
      "▁विवाह": 3381,
      "▁असोज": 3382,
      "▁शुल्क": 3383,
      "▁राहत": 3384,
      "मे": 3385,
      "ेश्वर": 3386,
      "▁निर्माणको": 3387,
      "▁खर्ब": 3388,
      "▁त्यसमा": 3389,
      "पथ": 3390,
      "न्छन्।": 3391,
      "▁झापा": 3392,
      "▁नाय": 3393,
      "▁अरू": 3394,
      "▁कानू": 3395,
      "स,": 3396,
      "र्सि": 3397,
      "लाइन": 3398,
      "▁छु।": 3399,
      "▁गाउँपालिका-": 3400,
      "▁दाहालले": 3401,
      "▁उपरीक्षक": 3402,
      "▁आम्दानी": 3403,
      "▁निर्यात": 3404,
      "▁खेलको": 3405,
      "▁वर्ग": 3406,
      "▁पार्टीले": 3407,
      "▁सम्पर्": 3408,
      "▁हार": 3409,
      "▁एका": 3410,
      "▁बर्ष": 3411,
      "▁अनुगमन": 3412,
      "न्छ,": 3413,
      "▁९०": 3414,
      "▁विजेता": 3415,
      "म्बु": 3416,
      "▁धु": 3417,
      "दायिक": 3418,
      "▁घिमिरे": 3419,
      "न्टर": 3420,
      "सिंह": 3421,
      "शक्ति": 3422,
      "भे": 3423,
      "▁राजीनामा": 3424,
      "▁द्व": 3425,
      "सला": 3426,
      "▁युद्ध": 3427,
      "▁७५": 3428,
      "▁जनाइएको": 3429,
      "▁भन्छन्,": 3430,
      "▁पृ": 3431,
      "▁तालिम": 3432,
      "▁भन्नुभयो,": 3433,
      "▁ब्रा": 3434,
      "▁नब": 3435,
      "▁आउट": 3436,
      "▁प्रचार": 3437,
      "लिएको": 3438,
      "▁मज": 3439,
      "▁सक्छ।": 3440,
      "▁अध्या": 3441,
      "▁२०७८": 3442,
      "▁गर्छन्।": 3443,
      "पुग": 3444,
      "त्सव": 3445,
      "▁नभए": 3446,
      "डर": 3447,
      "▁जनाएका": 3448,
      "घु": 3449,
      "माव": 3450,
      "▁अभिने": 3451,
      "▁एमालेले": 3452,
      "दय": 3453,
      "संग": 3454,
      "▁समर्थन": 3455,
      "▁पुनर्": 3456,
      "हानगर": 3457,
      "▁उद्घाटन": 3458,
      "▁युनि": 3459,
      "लोक": 3460,
      "▁रक्षा": 3461,
      "ोध": 3462,
      "कुर": 3463,
      "▁प्रसारण": 3464,
      "▁शेरबहादुर": 3465,
      "▁कहिले": 3466,
      "▁प्रेम": 3467,
      "लीको": 3468,
      "▁अर्थमन्त्री": 3469,
      "कर": 3470,
      "▁राजमार्ग": 3471,
      "▁नगद": 3472,
      "लन": 3473,
      "ढे": 3474,
      "▁रण": 3475,
      "▁नागरिकता": 3476,
      "वार्ड": 3477,
      "▁बढाउने": 3478,
      "▁मन्दिर": 3479,
      "ष्य": 3480,
      "▁अनुभव": 3481,
      "▁अपराध": 3482,
      "ष्णु": 3483,
      "▁नम्ब": 3484,
      "▁तरकारी": 3485,
      "▁प्रतिबद्धता": 3486,
      "▁देशभर": 3487,
      "▁भरत": 3488,
      "ःख": 3489,
      "▁अग्रता": 3490,
      "द्द": 3491,
      "▁जहा": 3492,
      "▁उजुरी": 3493,
      "▁साझ": 3494,
      "▁बराबरको": 3495,
      "▁बागमती": 3496,
      "▁अवि": 3497,
      "▁आयोजनाको": 3498,
      "▁मोटरसाइ": 3499,
      "▁अर्थात्": 3500,
      "▁(ए": 3501,
      "साब": 3502,
      "▁अहिलेको": 3503,
      "▁उपभोक्ता": 3504,
      "▁दबाब": 3505,
      "▁उपचारका": 3506,
      "लत": 3507,
      "बाइ": 3508,
      "हण": 3509,
      "घाट": 3510,
      "▁जोशी": 3511,
      "▁मैदानमा": 3512,
      "धव": 3513,
      "▁भै": 3514,
      "▁पश्चिम": 3515,
      "▁छैन,": 3516,
      "▁गर्नुभयो।": 3517,
      "▁हिमाल": 3518,
      "ंगो": 3519,
      "▁उनीहरुले": 3520,
      "▁दाय": 3521,
      "▁जलविद्य": 3522,
      "▁शेयर": 3523,
      "समि": 3524,
      "वाला": 3525,
      "▁आर": 3526,
      "▁निर्माणका": 3527,
      "▁नसक": 3528,
      "▁थालेका": 3529,
      "फी": 3530,
      "▁कप्तान": 3531,
      "▁दिएर": 3532,
      "▁बढ्": 3533,
      "▁सर्वसाधारण": 3534,
      "▁भारतमा": 3535,
      "फिक": 3536,
      "▁प्रचण्डले": 3537,
      "▁तोकिएको": 3538,
      "गि": 3539,
      "▁पारि": 3540,
      "▁सामान": 3541,
      "▁मेगा": 3542,
      "त्ती": 3543,
      "▁वर्षदेखि": 3544,
      "▁पदाधिकारी": 3545,
      "ारो": 3546,
      "▁सकारात्मक": 3547,
      "▁सामुदायिक": 3548,
      "▁नतिजा": 3549,
      "देवी": 3550,
      "▁छानबिन": 3551,
      "्वि": 3552,
      "▁सहर": 3553,
      "▁अख्": 3554,
      "▁गर्छ।": 3555,
      "सक्दा": 3556,
      "▁आजको": 3557,
      "बन्दी": 3558,
      "दैन।": 3559,
      "▁५५": 3560,
      "▁उहाँको": 3561,
      "▁बढ्न": 3562,
      "▁राजा": 3563,
      "▁काममा": 3564,
      "हीन": 3565,
      "ेलिया": 3566,
      "ृत्ति": 3567,
      "▁त्यस्तो": 3568,
      "▁न्यु": 3569,
      "▁बेच": 3570,
      "▁कथा": 3571,
      "▁आयोजक": 3572,
      "▁सिट": 3573,
      "▁यू": 3574,
      "▁जसले": 3575,
      "▁लाग्": 3576,
      "वाट": 3577,
      "▁केसी": 3578,
      "जस्ता": 3579,
      "▁कानुनी": 3580,
      "▁चौथो": 3581,
      "उनुपर्ने": 3582,
      "▁ट्रम्प": 3583,
      "▁यादवले": 3584,
      "▁मर्म": 3585,
      "▁कुमार": 3586,
      "चक": 3587,
      "▁तथ्यांक": 3588,
      "प्रपा": 3589,
      "ेली": 3590,
      "▁ग्र": 3591,
      "नेर": 3592,
      "▁कसै": 3593,
      "▁कारणले": 3594,
      "▁तपाईं": 3595,
      "र्ख": 3596,
      "▁माइ": 3597,
      "स्थलमा": 3598,
      "▁सञ्चालक": 3599,
      "▁जनाले": 3600,
      "नय": 3601,
      "▁घटेको": 3602,
      "▁हासिल": 3603,
      "दारी": 3604,
      "▁चे": 3605,
      "▁दुःख": 3606,
      "मल": 3607,
      "नाई": 3608,
      "▁विज्ञान": 3609,
      "▁अत्य": 3610,
      "▁२०८०": 3611,
      "नियर": 3612,
      "▁भर्ना": 3613,
      "▁साना": 3614,
      "▁थियो,": 3615,
      "▁भनी": 3616,
      "▁गोर": 3617,
      "▁अदालतमा": 3618,
      "▁पास": 3619,
      "वाल": 3620,
      "▁निर्धारण": 3621,
      "▁टो": 3622,
      "लिन": 3623,
      "▁२०७५": 3624,
      "▁व्यवहार": 3625,
      "▁बंगलादेश": 3626,
      "त्तै": 3627,
      "धानमन्त्री": 3628,
      "▁भाइरस": 3629,
      "▁बोक": 3630,
      "▁तुलनामा": 3631,
      "▁छिन्।": 3632,
      "▁३४": 3633,
      "▁अपेक्षा": 3634,
      "▁नगर्ने": 3635,
      "▁उपमहानगर": 3636,
      "▁पुस्त": 3637,
      "▁मतदाता": 3638,
      "क्षिक": 3639,
      "▁आए": 3640,
      "▁बनाएका": 3641,
      "▁जाँदा": 3642,
      "▁भाडा": 3643,
      "सै": 3644,
      "पचारिक": 3645,
      "वधान": 3646,
      "▁क्याम्प": 3647,
      "▁आह": 3648,
      "र्मिक": 3649,
      "रामा": 3650,
      "▁एन्": 3651,
      "सित": 3652,
      "▁भण्डारीले": 3653,
      "▁छौँ।": 3654,
      "▁वडाध्यक्ष": 3655,
      "▁सडकमा": 3656,
      "▁गर्नका": 3657,
      "सायिक": 3658,
      "▁गरिसकेको": 3659,
      "▁सन्देश": 3660,
      "▁हस्ताक्षर": 3661,
      "▁रिय": 3662,
      "ल्ट": 3663,
      "▁हुँदैन।": 3664,
      "▁मान्छे": 3665,
      "▁छोरी": 3666,
      "▁'आ": 3667,
      "▁भारतले": 3668,
      "▁जमि": 3669,
      "▁लगातार": 3670,
      "▁भत्": 3671,
      "▁राखेका": 3672,
      "▁साधन": 3673,
      "▁साढे": 3674,
      "▁तीव्र": 3675,
      "▁रोजगार": 3676,
      "▁वर्त": 3677,
      "शन": 3678,
      "▁उनीहरूको": 3679,
      "▁माधव": 3680,
      "▁जस्तै": 3681,
      "▁प्रकार": 3682,
      "दिएको": 3683,
      "▁आशा": 3684,
      "▁२०७७": 3685,
      "▁ट्या": 3686,
      "▁अनुरोध": 3687,
      "▁सरकारका": 3688,
      "प्रतिनिधि": 3689,
      "एल": 3690,
      "पे": 3691,
      "टु": 3692,
      "▁रंग": 3693,
      "▁देउवाले": 3694,
      "▁पहाडी": 3695,
      "▁शैक्षिक": 3696,
      "▁स्म": 3697,
      "ारम्भ": 3698,
      "▁लोकतान्त्रिक": 3699,
      "ल्याण्ड": 3700,
      "फलमा": 3701,
      "रुप": 3702,
      "▁सर्वा": 3703,
      "▁लड": 3704,
      "▁विश्वकप": 3705,
      "▁सम्पत्ति": 3706,
      "▁काठमाडौंमा": 3707,
      "च्": 3708,
      "मन": 3709,
      "▁सदर": 3710,
      "निर्माण": 3711,
      "राख": 3712,
      "▁साथी": 3713,
      "▁विधि": 3714,
      "▁होइन।": 3715,
      "▁ठेक्का": 3716,
      "▁पुँजी": 3717,
      "▁क्रिया": 3718,
      "▁दुर्घटनामा": 3719,
      "▁ब्याज": 3720,
      "रुपमा": 3721,
      "▁बुट": 3722,
      "लम्ब": 3723,
      "द्रा": 3724,
      "▁प्रतिवेद": 3725,
      "▁समेट": 3726,
      "▁बन्": 3727,
      "▁लाइन": 3728,
      "▁मुलुकको": 3729,
      "दीको": 3730,
      "▁सै": 3731,
      "▁पाइएको": 3732,
      "▁हुनुहु": 3733,
      "▁लगाउन": 3734,
      "ेलले": 3735,
      "तिको": 3736,
      "र्ती": 3737,
      "▁स्थग": 3738,
      "▁सल्लाह": 3739,
      "▁प्रारम्भ": 3740,
      "▁दिला": 3741,
      "न्थ्यो।": 3742,
      "▁नआ": 3743,
      "▁राजदू": 3744,
      "▁रवि": 3745,
      "▁भवि": 3746,
      "▁लामा": 3747,
      "▁संवैधानिक": 3748,
      "▁आग": 3749,
      "▁विद्यालयमा": 3750,
      "▁सरोकार": 3751,
      "तै": 3752,
      "▁गृहमन्त्री": 3753,
      "चौ": 3754,
      "▁गर्छ": 3755,
      "▁भाव": 3756,
      "▁पर्या": 3757,
      "▁आवेद": 3758,
      "▁पुगेर": 3759,
      "▁विनियोजन": 3760,
      "▁सुनु": 3761,
      "▁सजा": 3762,
      "रोह": 3763,
      "▁ज्ञा": 3764,
      "▁चालक": 3765,
      "▁गराएका": 3766,
      "▁२०७६": 3767,
      "▁कार्यरत": 3768,
      "▁पहु": 3769,
      "राको": 3770,
      "▁स्थित": 3771,
      "▁सम्बन्धी": 3772,
      "एसपी": 3773,
      "▁व्यावसायिक": 3774,
      "▁प्रेस": 3775,
      "▁मगर": 3776,
      "ताले": 3777,
      "▁पेस": 3778,
      "▁धार्मिक": 3779,
      "यमा": 3780,
      "श्वर": 3781,
      "▁खबर": 3782,
      "▁गुरुङ": 3783,
      "▁हुन्": 3784,
      "▁गलत": 3785,
      "रूपमा": 3786,
      "¥या": 3787,
      "▁४२": 3788,
      "सीसी": 3789,
      "▁कैला": 3790,
      "त्कार": 3791,
      "ँदैन।": 3792,
      "▁केन्द्रित": 3793,
      "रिका": 3794,
      "▁मार्ग": 3795,
      "रीका": 3796,
      "▁कलेज": 3797,
      "▁कोही": 3798,
      "्वान": 3799,
      "▁राप्रपा": 3800,
      "तः": 3801,
      "▁चासो": 3802,
      "▁वर्तमान": 3803,
      "▁गुरुङले": 3804,
      "▁एजेन्": 3805,
      "▁नगरपालिकाले": 3806,
      "▁३७": 3807,
      "▁हिसाब": 3808,
      "स्टर": 3809,
      "▁६५": 3810,
      "▁श्रील": 3811,
      "▁सँग": 3812,
      "ट्या": 3813,
      "▁चुना": 3814,
      "▁बुझा": 3815,
      "▁हिजो": 3816,
      "▁लकड": 3817,
      "▁पहुँच": 3818,
      "▁भनिन्,": 3819,
      "▁जसमा": 3820,
      "ल्ड": 3821,
      "▁सम्मेलनमा": 3822,
      "ेन्स": 3823,
      "▁मोबाइ": 3824,
      "▁मोर": 3825,
      "▁जोग": 3826,
      "▁चितव": 3827,
      "गञ्ज": 3828,
      "▁सूर्य": 3829,
      "▁पुग्न": 3830,
      "▁जग": 3831,
      "▁प्रशिक्षण": 3832,
      "▁भट्टराईले": 3833,
      "राले": 3834,
      "▁परराष्ट्र": 3835,
      "▁सरकारमा": 3836,
      "▁गतेसम्म": 3837,
      "णी": 3838,
      "▁हस्तान्तरण": 3839,
      "▁मिडिया": 3840,
      "▁विष्णु": 3841,
      "▁३८": 3842,
      "▁इन्टरने": 3843,
      "हारी": 3844,
      "▁आदि": 3845,
      "▁भव": 3846,
      "▁हाइ": 3847,
      "▁कात्तिक": 3848,
      "नीतिक": 3849,
      "▁स्थापित": 3850,
      "नाका": 3851,
      "▁जनप्रतिनिधि": 3852,
      "▁आफैं": 3853,
      "▁सिद्धा": 3854,
      "▁आह्वान": 3855,
      "ियर": 3856,
      "▁दोहो": 3857,
      "▁त्रिभु": 3858,
      "▁बला": 3859,
      "टाले": 3860,
      "▁त्यसका": 3861,
      "▁गतेदेखि": 3862,
      "▁बसेर": 3863,
      "▁बमोजिम": 3864,
      "▁धारा": 3865,
      "▁ते": 3866,
      "▁प्रवाह": 3867,
      "रेको": 3868,
      "▁कसैले": 3869,
      "▁मेडिकल": 3870,
      "▁नभई": 3871,
      "▁बाहिरि": 3872,
      "▁आलो": 3873,
      "सपा": 3874,
      "▁बाबु": 3875,
      "ुक": 3876,
      "▁गाउँमा": 3877,
      "▁भोलि": 3878,
      "▁ज्ञान": 3879,
      "▁लोकतन्त्र": 3880,
      "▁मान्यता": 3881,
      "▁नरहेको": 3882,
      "▁निः": 3883,
      "मूल": 3884,
      "▁भविष्य": 3885,
      "▁प्रतिबन्ध": 3886,
      "-२०": 3887,
      "न्धु": 3888,
      "▁नम": 3889,
      "ब्द": 3890,
      "▁अख्तियार": 3891,
      "▁विकासका": 3892,
      "▁भएपनि": 3893,
      "टका": 3894,
      "▁आवा": 3895,
      "▁विकल्प": 3896,
      "स्कृतिक": 3897,
      "नेको": 3898,
      "▁बढि": 3899,
      "▁मध्ये": 3900,
      "▁जरु": 3901,
      "▁त्रिभुवन": 3902,
      "▁हवाई": 3903,
      "▁प्राधिकरणले": 3904,
      "▁हित": 3905,
      "▁सम्भव": 3906,
      "▁आएपछि": 3907,
      "▁व्यक्तिको": 3908,
      "▁जरुरी": 3909,
      "▁मोटरसाइकल": 3910,
      "▁रम": 3911,
      "ोका": 3912,
      "▁दिनुपर्ने": 3913,
      "▁बालुवा": 3914,
      "▁यस्तै,": 3915,
      "▁केन्द्रमा": 3916,
      "▁पाउन": 3917,
      "▁सम्मेलन": 3918,
      "▁गरिन्छ।": 3919,
      "हरण": 3920,
      "▁राउ": 3921,
      "▁समग्र": 3922,
      "▁कार्कीले": 3923,
      "▁उपस्थिति": 3924,
      "खर": 3925,
      "▁जितेको": 3926,
      "पुरका": 3927,
      "ाल,": 3928,
      "▁जुट": 3929,
      "किने": 3930,
      "▁युक्र": 3931,
      "वाही": 3932,
      "बे": 3933,
      "▁सन्दर्भ": 3934,
      "▁सौ": 3935,
      "▁मात्रा": 3936,
      "भाइ": 3937,
      "▁'क": 3938,
      "▁खुसी": 3939,
      "▁चुनावी": 3940,
      "ेलिक": 3941,
      "▁लाई": 3942,
      "साथ": 3943,
      "▁परिणा": 3944,
      "▁पार्ने": 3945,
      "मिटेड": 3946,
      "▁एउटै": 3947,
      "▁भन्न": 3948,
      "▁प्रग": 3949,
      "▁प्रतियोगिताको": 3950,
      "▁सिका": 3951,
      "▁दोष": 3952,
      "▁च्याम्पियन": 3953,
      "▁सकिएको": 3954,
      "▁पर्छ।": 3955,
      "▁चितवन": 3956,
      "▁सैनिक": 3957,
      "▁मल": 3958,
      "▁महसु": 3959,
      "▁मेल": 3960,
      "▁दिनको": 3961,
      "▁सुरुवा": 3962,
      "गन्ज": 3963,
      "▁विभागका": 3964,
      "म,": 3965,
      "▁बीमा": 3966,
      "▁बिदा": 3967,
      "▁मुलुकमा": 3968,
      "▁जहाज": 3969,
      "▁मन्त्रालयको": 3970,
      "▁छिम": 3971,
      "▁बस्न": 3972,
      "▁सुवे": 3973,
      "▁बुढा": 3974,
      "▁जाँच": 3975,
      "द्व": 3976,
      "▁मले": 3977,
      "▁सुरू": 3978,
      "▁पदमा": 3979,
      "▁फैसला": 3980,
      "कला": 3981,
      "▁कडा": 3982,
      "▁कुन": 3983,
      "न्तव्य": 3984,
      "ी,": 3985,
      "ौँ,": 3986,
      "्यू": 3987,
      "▁डी": 3988,
      "▁हामीलाई": 3989,
      "व्या": 3990,
      "▁आपूर्ति": 3991,
      "▁अपना": 3992,
      "▁सजाय": 3993,
      "▁बेलायत": 3994,
      "▁रिपोर्ट": 3995,
      "बारी": 3996,
      "जन्य": 3997,
      "▁लिमिटेड": 3998,
      "▁मेस": 3999,
      "वनी": 4000,
      "▁नस": 4001,
      "▁सहायक": 4002,
      "▁यद्य": 4003,
      "▁परिचालन": 4004,
      "▁बिजु": 4005,
      "▁दिए": 4006,
      "▁टिप्": 4007,
      "▁निवास": 4008,
      "▁सार": 4009,
      "▁महोत्सव": 4010,
      "▁उनीहरुको": 4011,
      "कुमारी": 4012,
      "▁काँग": 4013,
      "न्दर": 4014,
      "▁गर्नुपर्छ।": 4015,
      "▁चौधरी": 4016,
      "तिकै": 4017,
      "▁हिंसा": 4018,
      "▁अन्न": 4019,
      "▁नेपाललाई": 4020,
      "▁अर्य": 4021,
      "▁कास्की": 4022,
      "▁यता": 4023,
      "▁संविधानको": 4024,
      "▁देखिएका": 4025,
      "▁खारे": 4026,
      "▁गएर": 4027,
      "▁एसिया": 4028,
      "▁नगरपालिकाका": 4029,
      "▁म्यान": 4030,
      "▁पश्च": 4031,
      "▁जनशक्ति": 4032,
      "▁सोध": 4033,
      "००": 4034,
      "▁शुभ": 4035,
      "▁सापको": 4036,
      "कट": 4037,
      "▁सदरमु": 4038,
      "▁बाग": 4039,
      "▁विजय": 4040,
      "▁उपस्थित": 4041,
      "▁विज्ञप्तिमा": 4042,
      "▁रनमा": 4043,
      "▁किसि": 4044,
      "दम": 4045,
      "त्सा": 4046,
      "▁हिँड": 4047,
      "दीले": 4048,
      "▁चीनको": 4049,
      "▁सजि": 4050,
      "ालो": 4051,
      "्वा": 4052,
      "▁सब": 4053,
      "इने": 4054,
      "ण्डै": 4055,
      "▁कांग्रेसको": 4056,
      "▁रहेकाले": 4057,
      "▁अवार्ड": 4058,
      "▁नियुक्ति": 4059,
      "क्रा": 4060,
      "संख्या": 4061,
      "▁पेट्रो": 4062,
      "▁काँग्रेस": 4063,
      "लक": 4064,
      "▁बोल्दै": 4065,
      "्याम": 4066,
      "▁सबैलाई": 4067,
      "खेल": 4068,
      "▁साझा": 4069,
      "▁आएर": 4070,
      "▁महाधिवेशन": 4071,
      "▁समृद्धि": 4072,
      "▁जोडि": 4073,
      "▁राईले": 4074,
      "द्र्": 4075,
      "एई": 4076,
      "▁कोभिड-१९": 4077,
      "▁लगाएका": 4078,
      "▁बार": 4079,
      "▁संगठन": 4080,
      "▁माथ": 4081,
      "▁सेमि": 4082,
      "दीप": 4083,
      "▁पुरानो": 4084,
      "रूप": 4085,
      "क्रो": 4086,
      "▁मेला": 4087,
      "▁बसेका": 4088,
      "डिङ": 4089,
      "स्।": 4090,
      "▁पोखरेलले": 4091,
      "▁शरी": 4092,
      "▁न्यौ": 4093,
      "▁गर्नेछ।": 4094,
      "▁इजरा": 4095,
      "▁चुनावमा": 4096,
      "वार्य": 4097,
      "षद": 4098,
      "▁'उ": 4099,
      "▁निःशुल्क": 4100,
      "▁भनाई": 4101,
      "मावली": 4102,
      "▁गाउँपालिकाका": 4103,
      "▁कामदार": 4104,
      "▁छोड": 4105,
      "▁नगरी": 4106,
      "▁जिम्मा": 4107,
      "▁सिन्धु": 4108,
      "▁निर्माणमा": 4109,
      "र्का": 4110,
      "र्मा": 4111,
      "▁आँखा": 4112,
      "क्ट": 4113,
      "चु": 4114,
      "▁तराई": 4115,
      "▁अनिवार्य": 4116,
      "▁ट्राफिक": 4117,
      "▁झण्डै": 4118,
      "जाने": 4119,
      "▁महत्": 4120,
      "▁ब्": 4121,
      "▁कम्तीमा": 4122,
      "▁संघका": 4123,
      "▁४१": 4124,
      "दैन": 4125,
      "श्य": 4126,
      "▁प्राथमिकता": 4127,
      "▁तहका": 4128,
      "जस्तो": 4129,
      "▁अधि": 4130,
      "▁४८": 4131,
      "▁जनताले": 4132,
      "ज्ञान": 4133,
      "करणमा": 4134,
      "र,": 4135,
      "▁लागु": 4136,
      "▁यहाँका": 4137,
      "▁ध्या": 4138,
      "▁सबैको": 4139,
      "▁५१": 4140,
      "▁अफग": 4141,
      "▁दिल्": 4142,
      "▁नारा": 4143,
      "▁हेर्दा": 4144,
      "▁चयन": 4145,
      "▁गोरखा": 4146,
      "२०": 4147,
      "▁अग": 4148,
      "▁अवरुद्ध": 4149,
      "लिया": 4150,
      "▁चेता": 4151,
      "ौला": 4152,
      "▁लाभ": 4153,
      "▁न्यौपा": 4154,
      "▁पर्यटकीय": 4155,
      "▁बढा": 4156,
      "तिका": 4157,
      "▁छ',": 4158,
      "▁हुन्छ,": 4159,
      "▁उपमहानगरपालिका": 4160,
      "▁म्याद": 4161,
      "जान": 4162,
      "▁४३": 4163,
      "▁श्रेष्ठ,": 4164,
      "▁सर्वाधिक": 4165,
      "वडा": 4166,
      "▁दृष्टि": 4167,
      "▁केसीले": 4168,
      "▁कमी": 4169,
      "▁जनसंख्या": 4170,
      "▁डाक्टर": 4171,
      "▁गए": 4172,
      "▁३९": 4173,
      "▁लागिएको": 4174,
      "▁पठाएको": 4175,
      "न्छु": 4176,
      "▁गणेश": 4177,
      "तालाई": 4178,
      "▁सिरि": 4179,
      "यान": 4180,
      "▁नगरेको": 4181,
      "कृष्ण": 4182,
      "ल्का": 4183,
      "▁सध": 4184,
      "▁साधारण": 4185,
      "▁आवेदन": 4186,
      "▁लगानीकर्ता": 4187,
      "▁फ्रा": 4188,
      "▁दलित": 4189,
      "कर्षण": 4190,
      "न्द्व": 4191,
      "ञ्चन": 4192,
      "▁थालेपछि": 4193,
      "▁कोशी": 4194,
      "▁चेतावनी": 4195,
      "▁विधान": 4196,
      "▁त्यस्तै,": 4197,
      "▁छिमेकी": 4198,
      "▁काउ": 4199,
      "▁बनाइएको": 4200,
      "▁खस": 4201,
      "▁विभा": 4202,
      "ियम": 4203,
      "▁व्यक्तिगत": 4204,
      "▁कुराका": 4205,
      "▁सत्त": 4206,
      "▁स्थगित": 4207,
      "ेड": 4208,
      "▁मिलेर": 4209,
      "▁बग": 4210,
      "▁पु¥या": 4211,
      "▁समितिमा": 4212,
      "र्खेत": 4213,
      "मेल": 4214,
      "▁कुश": 4215,
      "▁नजिकै": 4216,
      "▁पाठ": 4217,
      "▁जनामा": 4218,
      "▁रोक्न": 4219,
      "▁४४": 4220,
      "▁लिए।": 4221,
      "▁अभिनय": 4222,
      "▁वर्षअघि": 4223,
      "▁दस": 4224,
      "▁पृथ": 4225,
      "ेमा": 4226,
      "▁यथा": 4227,
      "▁बाहेक": 4228,
      "▁क्वार": 4229,
      "▁इट": 4230,
      "ुरू": 4231,
      "▁क्यान": 4232,
      "▁एवम्": 4233,
      "▁श्रीमती": 4234,
      "▁चिन्ता": 4235,
      "▁बन्दै": 4236,
      "▁इजला": 4237,
      "▁ध्याना": 4238,
      "व्यक्ति": 4239,
      "▁सिटी": 4240,
      "▁सम्पर्क": 4241,
      "▁कम्युनिष्ट": 4242,
      "तावास": 4243,
      "▁राजेन्द्र": 4244,
      "▁सानो": 4245,
      "▁नम्बरको": 4246,
      "▁मुद्दामा": 4247,
      "▁बस्ती": 4248,
      "▁निरन्तरता": 4249,
      "▁प्रिम": 4250,
      "▁अत्या": 4251,
      "▁नवी": 4252,
      "▁किश": 4253,
      "▁इन्जि": 4254,
      "▁गराइ": 4255,
      "▁प्रतिक्रिया": 4256,
      "शाला": 4257,
      "▁आर्मी": 4258,
      "▁ब्र": 4259,
      "माओवादी": 4260,
      "▁बेप": 4261,
      "▁उदा": 4262,
      "▁'यो": 4263,
      "▁ढंग": 4264,
      "सेवा": 4265,
      "▁प्ले": 4266,
      "▁कुराकानी": 4267,
      "▁फल": 4268,
      "नारायण": 4269,
      "▁बच्चा": 4270,
      "▁स्वर्ण": 4271,
      "क्ने": 4272,
      "▁विष्ट": 4273,
      "▁चन्द": 4274,
      "▁सङ्क्रमित": 4275,
      "▁विश्वासको": 4276,
      "▁टेलि": 4277,
      "र्पा": 4278,
      "▁सुशा": 4279,
      "▁लगाएर": 4280,
      "▁कित्": 4281,
      "▁'प": 4282,
      "हरूका": 4283,
      "्याउने": 4284,
      "र्चु": 4285,
      "▁युरोप": 4286,
      "▁उसले": 4287,
      "ज्": 4288,
      "▁भीम": 4289,
      "▁मार्फत": 4290,
      "▁औँ": 4291,
      "▁वर्षका": 4292,
      "▁औपचारिक": 4293,
      "▁समूहले": 4294,
      "▁प्रावधान": 4295,
      "▁सत्य": 4296,
      "▁समारोह": 4297,
      "पणी": 4298,
      "▁ध्यानाकर्षण": 4299,
      "▁दीपक": 4300,
      "त्न": 4301,
      "▁पञ्च": 4302,
      "▁०७": 4303,
      "▁'ब": 4304,
      "▁आधारित": 4305,
      "▁नागरिकलाई": 4306,
      "नीति": 4307,
      "▁महानि": 4308,
      "म्रो": 4309,
      "कूल": 4310,
      "▁हिम": 4311,
      "ोरै": 4312,
      "▁आफन्त": 4313,
      "▁सुनको": 4314,
      "▁अवरोध": 4315,
      "▁रेल": 4316,
      "भूत": 4317,
      "भित्रै": 4318,
      "▁सुर्खेत": 4319,
      "▁सांस्कृतिक": 4320,
      "▁गर्यो।": 4321,
      "▁टिकट": 4322,
      "▁विद्युतीय": 4323,
      "रका": 4324,
      "क्षेप": 4325,
      "▁महिलाको": 4326,
      "▁फोन": 4327,
      "▁स्वीकार": 4328,
      "'को": 4329,
      "▁उपयोग": 4330,
      "▁द्वन्द्व": 4331,
      "▁व्यवस्थित": 4332,
      "▁निम्ति": 4333,
      "▁पर्याप्त": 4334,
      "जनको": 4335,
      "▁लघु": 4336,
      "▁समयदेखि": 4337,
      "▁चलि": 4338,
      "गण": 4339,
      "ेदारी": 4340,
      "▁सेन्टर": 4341,
      "▁गाउँपालिकाको": 4342,
      ".५": 4343,
      "▁कस्तो": 4344,
      "▁क्वारेन्": 4345,
      "▁श्रमिक": 4346,
      "▁छिटो": 4347,
      "▁प्रगति": 4348,
      "▁कोठा": 4349,
      "▁स्वागत": 4350,
      "▁संघर्ष": 4351,
      "फि": 4352,
      "मक": 4353,
      "▁डिभिजन": 4354,
      "▁कवि": 4355,
      "▁ढा": 4356,
      "▁सपना": 4357,
      "▁५२": 4358,
      "धुनिक": 4359,
      "▁नगरपालिकाको": 4360,
      "न्यायाधीश": 4361,
      "▁हप्ता": 4362,
      "▁भग": 4363,
      "▁परिस्थिति": 4364,
      "▁बढाएको": 4365,
      "▁सेमिफाइ": 4366,
      "यन्त्र": 4367,
      "▁काट": 4368,
      "▁सुनिश्चित": 4369,
      "दिने": 4370,
      "▁पठाउने": 4371,
      "छु।": 4372,
      "▁मिनेट": 4373,
      "▁पाए": 4374,
      "▁अभ्यास": 4375,
      "ना,": 4376,
      "▁प्रधानमन्त्रीले": 4377,
      "▁नसक्दा": 4378,
      "▁गोली": 4379,
      "तक": 4380,
      "र्द": 4381,
      "▁बेपत्ता": 4382,
      "▁सेट": 4383,
      "▁पहिला": 4384,
      "▁खेत": 4385,
      "राइ": 4386,
      "टीमा": 4387,
      "▁न्यौपाने": 4388,
      "▁जेल": 4389,
      "▁जनकपुर": 4390,
      "▁पुलि": 4391,
      "▁खाद्य": 4392,
      "स्तरीय": 4393,
      "▁निधन": 4394,
      "▁रोप": 4395,
      "▁थोरै": 4396,
      "बास": 4397,
      "टार": 4398,
      "▁जर्म": 4399,
      "वर्ष": 4400,
      "▁मोबाइल": 4401,
      "त,": 4402,
      "▁थान": 4403,
      "षे": 4404,
      "▁विसं": 4405,
      "▁म्याग्": 4406,
      "▁उनीहरूलाई": 4407,
      "▁सदरमुकाम": 4408,
      "ंकर": 4409,
      "▁२०५": 4410,
      "▁अधिवेशन": 4411,
      "श्र": 4412,
      "▁झु": 4413,
      "▁निवेदन": 4414,
      "▁स्वीकृति": 4415,
      "▁कहाँ": 4416,
      "तिहासिक": 4417,
      "सिन्दा": 4418,
      "छिन्।": 4419,
      "लाम": 4420,
      "्यो,": 4421,
      "▁आरोपमा": 4422,
      "▁आयोजनामा": 4423,
      "▁बराम": 4424,
      "▁व्यापारी": 4425,
      "▁वायु": 4426,
      "▁गल्": 4427,
      "▁बलात्कार": 4428,
      "▁अनलाइन": 4429,
      "▁सन्दर्भमा": 4430,
      "▁खड्काले": 4431,
      "ठी": 4432,
      "▁शब्द": 4433,
      "▁हेर्न": 4434,
      "▁डिज": 4435,
      "▁निष्कर्ष": 4436,
      "नाल्": 4437,
      "▁भएकी": 4438,
      "▁तर्क": 4439,
      "▁तु": 4440,
      "▁अवै": 4441,
      "ुञ्ज": 4442,
      "▁परिणाम": 4443,
      "▁उपयुक्त": 4444,
      "▁रौ": 4445,
      "▁सुख": 4446,
      "▁मोह": 4447,
      "न्दे": 4448,
      "राग": 4449,
      "▁सहयोगमा": 4450,
      "▁जय": 4451,
      "▁मामिला": 4452,
      "▁राख्": 4453,
      "▁संसदमा": 4454,
      "▁गाउँपालिकामा": 4455,
      "▁गन्तव्य": 4456,
      "▁वास्त": 4457,
      "▁बीचमा": 4458,
      "▁गी": 4459,
      "▁पछा": 4460,
      "▁खेल्न": 4461,
      "▁खति": 4462,
      "▁लेखा": 4463,
      "▁यद्यपि": 4464,
      "▁बाह": 4465,
      "▁भर": 4466,
      "ंकन": 4467,
      "ब्जा": 4468,
      "▁तस्": 4469,
      "▁उत्सा": 4470,
      "नीले": 4471,
      "▁बहुमत": 4472,
      "▁देखाएको": 4473,
      "डको": 4474,
      "▁प्ला": 4475,
      "▁प्राकृतिक": 4476,
      "जुन": 4477,
      "वक्ता": 4478,
      "लीले": 4479,
      "▁संसार": 4480,
      "रुवा": 4481,
      "निर्वाच": 4482,
      "▁लगाइएको": 4483,
      "ियाली": 4484,
      "नित": 4485,
      "▁मधेश": 4486,
      "▁४६": 4487,
      "▁अध्यय": 4488,
      "▁बुद्ध": 4489,
      "▁रमेश": 4490,
      "ँस": 4491,
      "मला": 4492,
      "▁चरणको": 4493,
      "▁गणतन्त्र": 4494,
      "▁टिप्पणी": 4495,
      "▁सन्दी": 4496,
      "▁महिनाको": 4497,
      "सामा": 4498,
      "▁समयमै": 4499,
      "स्को": 4500,
      "..": 4501,
      "प्ले": 4502,
      "चीमा": 4503,
      "ध्यापक": 4504,
      "▁व्यक्तिलाई": 4505,
      "▁खतिवडा": 4506,
      "▁लकडाउन": 4507,
      "परी": 4508,
      "▁कम्युनिस्ट": 4509,
      "▁भेला": 4510,
      "▁आलोचना": 4511,
      "पूर्वक": 4512,
      "इरहेको": 4513,
      "▁त्यसले": 4514,
      "्स": 4515,
      "हित्य": 4516,
      "▁मेट": 4517,
      "▁गरिन्।": 4518,
      "▁घटनामा": 4519,
      "▁महत्त्व": 4520,
      "▁बरामद": 4521,
      "▁४७": 4522,
      "▁निषे": 4523,
      "▁उपकरण": 4524,
      "▁अंग": 4525,
      "▁कूल": 4526,
      "कारि": 4527,
      "▁ज्या": 4528,
      "विध": 4529,
      "▁राणा": 4530,
      "▁चढ": 4531,
      "▁निश्चित": 4532,
      "हरूसँग": 4533,
      "▁गाउँपालिकाले": 4534,
      "▁हिउँ": 4535,
      "▁आयोगको": 4536,
      "▁ऐतिहासिक": 4537,
      "छो": 4538,
      "फर": 4539,
      "▁उनीहरुलाई": 4540,
      "▁भक्तपुर": 4541,
      "▁दिनु": 4542,
      "▁स्वय": 4543,
      "▁राजदूत": 4544,
      "▁हुन्छन्।": 4545,
      "▁संगीत": 4546,
      "ँ,": 4547,
      "▁भइरहेका": 4548,
      "▁एमालेको": 4549,
      "▁दशक": 4550,
      "▁फ्रान्स": 4551,
      "प्टर": 4552,
      "व्यापी": 4553,
      "▁सीमित": 4554,
      "▁केन्द्रले": 4555,
      "चे": 4556,
      "▁फिल्ममा": 4557,
      "नेछ।": 4558,
      "▁दुरु": 4559,
      "▁दीप": 4560,
      "▁मोड": 4561,
      "▁साझेदारी": 4562,
      "▁प्रबन्ध": 4563,
      "▁जरि": 4564,
      "▁रिज": 4565,
      "▁मसा": 4566,
      "▁बैं": 4567,
      "▁छलफलमा": 4568,
      "▁महेन्द्र": 4569,
      "▁कञ्चन": 4570,
      "▁जडान": 4571,
      "ल्यै": 4572,
      "▁कार्यान्वयनमा": 4573,
      "▁लक्षित": 4574,
      "चन": 4575,
      "▁निरीक्षक": 4576,
      "▁दायर": 4577,
      "्याउन": 4578,
      "▁उचित": 4579,
      "▁चौका": 4580,
      "ियाँ": 4581,
      "▁असन्तु": 4582,
      "▁५६": 4583,
      "▁विघ": 4584,
      "▁५३": 4585,
      "ानिस्ता": 4586,
      "▁ललितपुर": 4587,
      "▁कोइराला": 4588,
      "समिति": 4589,
      "▁निकुञ्ज": 4590,
      "वाली": 4591,
      "पाइ": 4592,
      "▁फाइदा": 4593,
      "तरा": 4594,
      "▁४९": 4595,
      "▁दौ": 4596,
      "शाली": 4597,
      "▁पार्न": 4598,
      "▁सेनाले": 4599,
      "▁प्रतिनि": 4600,
      "▁माछा": 4601,
      "▁नागरिकको": 4602,
      "कका": 4603,
      "▁सबैले": 4604,
      "▁पेट्रोल": 4605,
      "▁खारेज": 4606,
      "भरि": 4607,
      "▁मलेसिया": 4608,
      "▁निकट": 4609,
      "▁बर": 4610,
      "▁'त्य": 4611,
      "▁नं.": 4612,
      "▁उत्र": 4613,
      "▁घो": 4614,
      "▁माध्यमबाट": 4615,
      "▁गाई": 4616,
      "क,": 4617,
      "किलो": 4618,
      "▁झन्": 4619,
      "▁आधा": 4620,
      "▁सन्तोष": 4621,
      "चर": 4622,
      "▁स्कु": 4623,
      "▁नदिने": 4624,
      "▁दर्जन": 4625,
      "न्देही": 4626,
      "▁जहाँ": 4627,
      "▁इलाका": 4628,
      "▁शेर्पा": 4629,
      "वायु": 4630,
      "गठ": 4631,
      "▁माया": 4632,
      "▁क्षेत्रीय": 4633,
      "▁क्षेत्रलाई": 4634,
      "▁हाम्रा": 4635,
      "▁सामना": 4636,
      "सङ्घ": 4637,
      "▁विकासमा": 4638,
      "हरी": 4639,
      "▁निरा": 4640,
      "▁तरिका": 4641,
      "▁श्रीलंका": 4642,
      "▁फर्का": 4643,
      "▁रुपियाँ": 4644,
      "▁सफलता": 4645,
      "ग्राही": 4646,
      "▁'हामी": 4647,
      "▁फूल": 4648,
      "▁५४": 4649,
      "▁अर": 4650,
      "▁बाँड": 4651,
      "सोले": 4652,
      "▁पाण्डेले": 4653,
      "▁होट": 4654,
      "▁लक्ष्मी": 4655,
      "▁तामाङ": 4656,
      "▁आयोगका": 4657,
      "▁हिसाबले": 4658,
      "पत्रमा": 4659,
      "▁सिंहले": 4660,
      "वृद्धि": 4661,
      "▁बागलु": 4662,
      "▁माल": 4663,
      "▁फोहोर": 4664,
      "▁जसपा": 4665,
      "▁यसपटक": 4666,
      "▁पठा": 4667,
      "▁जाग": 4668,
      "▁आगला": 4669,
      "▁विश्ले": 4670,
      "▁साहित्य": 4671,
      "▁जलविद्युत्": 4672,
      "▁आगो": 4673,
      "ल्पा": 4674,
      "▁'वि": 4675,
      "▁'अहिले": 4676,
      "च्छा": 4677,
      "▁बहस": 4678,
      "▁बिजुली": 4679,
      "▁मुद्रा": 4680,
      "▁सदस्यीय": 4681,
      "▁ल्याइएको": 4682,
      "▁हाफ": 4683,
      "▁अफगानिस्ता": 4684,
      "्लो": 4685,
      "▁मसान्त": 4686,
      "▁अभिभाव": 4687,
      "▁प्रवद्र्": 4688,
      "▁अश": 4689,
      "▁बासिन्दा": 4690,
      "▁खाना": 4691,
      "▁बचत": 4692,
      "▁सन्दीप": 4693,
      "लोकन": 4694,
      "▁हेट": 4695,
      "▁सिँच": 4696,
      "वत": 4697,
      "मार्ट": 4698,
      "▁अप्र": 4699,
      "▁मूल्या": 4700,
      "▁बैंकका": 4701,
      "▁उपप्रमुख": 4702,
      "▁सकेन।": 4703,
      "गाउँ": 4704,
      "▁हेर्ने": 4705,
      "खन": 4706,
      "▁तेल": 4707,
      "श्वास": 4708,
      "र्घ": 4709,
      "▁अदालतको": 4710,
      "▁मेगावाट": 4711,
      "▁सङ्घीय": 4712,
      "▁जुम्": 4713,
      "▁शेख": 4714,
      "औँ": 4715,
      "▁थालिएको": 4716,
      "▁चर्च": 4717,
      "▁तन": 4718,
      "मय": 4719,
      "▁आवास": 4720,
      "▁कमल": 4721,
      "▁उद्देश्यले": 4722,
      "द्योग": 4723,
      "▁रेग्": 4724,
      "दुई": 4725,
      "्रै": 4726,
      "▁स्वीकृत": 4727,
      "▁सुनुवाइ": 4728,
      "लिङ": 4729,
      "▁तलब": 4730,
      "स्कि": 4731,
      "्यकर्मी": 4732,
      "िल": 4733,
      "रामर्श": 4734,
      "▁चौधरीले": 4735,
      "▁सिद्धान्त": 4736,
      "▁बालिका": 4737,
      "प्प": 4738,
      "▁खुलेको": 4739,
      "▁५७": 4740,
      "▁प्रधानमन्त्रीको": 4741,
      "र्सिलो": 4742,
      "▁सुन्दर": 4743,
      "हरुका": 4744,
      "▁कल": 4745,
      "▁क्रि": 4746,
      "▁दुबै": 4747,
      "विरुद्धको": 4748,
      "टिल": 4749,
      "जले": 4750,
      "▁चीनले": 4751,
      "▁जनतालाई": 4752,
      "▁खट": 4753,
      "▁अने": 4754,
      "▁सप्त": 4755,
      "नीय": 4756,
      "▁थुप्र": 4757,
      "▁दै": 4758,
      "▁प्रजातन्त्र": 4759,
      "▁निस्क": 4760,
      "गरमा": 4761,
      "▁ब्याटिङ": 4762,
      "▁शू": 4763,
      "बो": 4764,
      "देख": 4765,
      "▁प्रारम्भिक": 4766,
      "▁खण्डमा": 4767,
      "▁फोर": 4768,
      "▁हालै": 4769,
      "▁पक्षले": 4770,
      "▁पशुपति": 4771,
      "▁ग्राहक": 4772,
      "▁टाइ": 4773,
      "▁कन्": 4774,
      "▁विषयलाई": 4775,
      "▁प्रकृति": 4776,
      "▁बार्सिलो": 4777,
      "▁हतियार": 4778,
      "▁बारा": 4779,
      "निया": 4780,
      "ितो": 4781,
      "▁७६": 4782,
      "▁जलवायु": 4783,
      "▁कुरामा": 4784,
      "▁वृ": 4785,
      "▁चित्र": 4786,
      "▁सक्छ": 4787,
      "▁मू": 4788,
      "▁प्रधानन्यायाधीश": 4789,
      "▁कार्यविधि": 4790,
      "▁कुट": 4791,
      "▁उदय": 4792,
      "नुपा": 4793,
      "▁निर्वाचनको": 4794,
      "-३": 4795,
      "▁एक्स": 4796,
      "▁कारवाही": 4797,
      "▁विगतमा": 4798,
      "▁अस्ट्र": 4799,
      "▁संस्थाले": 4800,
      "▁नवल": 4801,
      "▁चिया": 4802,
      "▁नायब": 4803,
      "▁व्यक्तिले": 4804,
      "▁स्थानीयले": 4805,
      "▁पदक": 4806,
      "▁कदम": 4807,
      "थम": 4808,
      "▁भएमा": 4809,
      "▁टीका": 4810,
      "्म": 4811,
      "▁दिवस": 4812,
      "▁प्रोत्सा": 4813,
      "गोल": 4814,
      "▁५८": 4815,
      "ियत": 4816,
      "▁बुटवल": 4817,
      "▁रमा": 4818,
      "▁परामर्श": 4819,
      "▁चाँ": 4820,
      "▁सकेका": 4821,
      "धारित": 4822,
      "▁समी": 4823,
      "▁खटि": 4824,
      "नुपातिक": 4825,
      "▁प्रवृत्ति": 4826,
      "▁समूहको": 4827,
      "▁एकको": 4828,
      "्रिक": 4829,
      "▁पुर्याउने": 4830,
      "▁वाम": 4831,
      "▁सही": 4832,
      "▁दफा": 4833,
      "▁देखिने": 4834,
      "▁तस्क": 4835,
      "▁पानीको": 4836,
      "▁ज्ञवाली": 4837,
      "▁गाँ": 4838,
      "▁मन्त्रालयमा": 4839,
      "▁गौर": 4840,
      "वार्ता": 4841,
      "्र्": 4842,
      "पात": 4843,
      "िमा": 4844,
      "▁कीर्ति": 4845,
      "▁विकासको": 4846,
      "▁उत्प": 4847,
      "▁महामन्त्री": 4848,
      "▁काठमाडौंको": 4849,
      "▁आफैँ": 4850,
      "▁वर्षसम्म": 4851,
      "▁बजेसम्म": 4852,
      "▁एकल": 4853,
      "नीको": 4854,
      "▁स्वास्थ्यकर्मी": 4855,
      "▁ठो": 4856,
      "▁फेस": 4857,
      "▁बढ्दो": 4858,
      "▁कार्यालयको": 4859,
      "▁शहर": 4860,
      "▁शाक्य": 4861,
      "▁ढंगले": 4862,
      "▁डिजि": 4863,
      "▁तयारीमा": 4864,
      "▁टुंगो": 4865,
      "काे": 4866,
      "▁दलले": 4867,
      "चार्ज": 4868,
      "▁चेक": 4869,
      "ङ्गल": 4870,
      "▁त्यस्ता": 4871,
      "▁सिँचाइ": 4872,
      "▁ल्याएर": 4873,
      "▁'नेपाल": 4874,
      "▁धनगढी": 4875,
      "▁मन्दि": 4876,
      "▁राज्यको": 4877,
      "गढ": 4878,
      "▁तनहुँ": 4879,
      "▁भ्या": 4880,
      "ंशिक": 4881,
      "वानी": 4882,
      "▁निको": 4883,
      "आफ": 4884,
      "▁खोला": 4885,
      "▁कार्यकाल": 4886,
      "▁पालना": 4887,
      "▁विविध": 4888,
      "▁कार्यक्रमको": 4889,
      "▁स्थल": 4890,
      "▁८५": 4891,
      "▁बस्दै": 4892,
      "▁हुनसक्ने": 4893,
      "▁ठहर": 4894,
      "▁यदि": 4895,
      "जनक": 4896,
      "▁विपक्षी": 4897,
      "▁मर्मत": 4898,
      "▁दूध": 4899,
      "▁जोड्ने": 4900,
      "▁ढकालले": 4901,
      "▁बनाए।": 4902,
      "▁समानुपातिक": 4903,
      "▁पसल": 4904,
      "कामना": 4905,
      "सकेपछि": 4906,
      "▁अमेरिकाको": 4907,
      "▁प्रवर्": 4908,
      "▁गर्नेछन्।": 4909,
      "▁डुब": 4910,
      "▁'हामीले": 4911,
      "▁भारतबाट": 4912,
      "▁फाइनलमा": 4913,
      "▁युक्रे": 4914,
      "▁ढुंगा": 4915,
      "▁बाइ": 4916,
      "▁७७": 4917,
      "▁रोकि": 4918,
      "▁भोट": 4919,
      "हिरो": 4920,
      "▁७२": 4921,
      "▁क्रा": 4922,
      "▁महाधिवेश": 4923,
      "▁सभामा": 4924,
      "सुकै": 4925,
      "क्सा": 4926,
      "▁भएकोले": 4927,
      "वट": 4928,
      "▁पछाडि": 4929,
      "▁निर्वाह": 4930,
      "▁लाल": 4931,
      "▁क्रमश": 4932,
      "▁मूल्यमा": 4933,
      "चाइ": 4934,
      "▁भारतका": 4935,
      "एक": 4936,
      "ूट": 4937,
      "म्स": 4938,
      "मुक्त": 4939,
      "▁दुरुपयोग": 4940,
      "▁अवैध": 4941,
      "▁मण्ड": 4942,
      "▁शो": 4943,
      "रा,": 4944,
      "धीन": 4945,
      "▁दायित्व": 4946,
      "विद्": 4947,
      "▁पाउ": 4948,
      "▁१००": 4949,
      "ीलाई": 4950,
      "▁शून्य": 4951,
      "▁न्यूनतम": 4952,
      "▁राजनीतिमा": 4953,
      "स्वा": 4954,
      "▁थिय": 4955,
      "▁रोकिएको": 4956,
      "▁आवाज": 4957,
      "▁आचार्यले": 4958,
      "ड्रो": 4959,
      "▁एकजना": 4960,
      "▁सूची": 4961,
      "▁फोटो": 4962,
      "▁सरकारसँग": 4963,
      "नीमा": 4964,
      "▁नगरपालिकामा": 4965,
      "▁समूहका": 4966,
      "▁परिच": 4967,
      "रिङ": 4968,
      "▁इन्ड": 4969,
      "▁तथ्याङ्क": 4970,
      "▁शासन": 4971,
      "▁जरिवा": 4972,
      "▁६४": 4973,
      "श्रम": 4974,
      "▁संस्थागत": 4975,
      "विन्द": 4976,
      "▁सिने": 4977,
      "▁लैजाने": 4978,
      "▁फाइनल": 4979,
      "▁कित्ता": 4980,
      "▁प्रतिवेदनमा": 4981,
      "▁किसानले": 4982,
      "▁नेप्": 4983,
      "▁प्रतिनिध": 4984,
      "▁मानसिक": 4985,
      "▁बेलु": 4986,
      "र्नु": 4987,
      "जसो": 4988,
      "▁पन्त": 4989,
      "▁पठाइएको": 4990,
      "▁साध": 4991,
      "▁अमेरिकामा": 4992,
      "दृ": 4993,
      "▁गरिनेछ।": 4994,
      "ज्ञानिक": 4995,
      "▁नदीमा": 4996,
      "▁प्रिमियर": 4997,
      "▁पर्न": 4998,
      "▁खोजेको": 4999,
      "▁आंशिक": 5000,
      "▁दूतावास": 5001,
      "▁दीर्घ": 5002,
      "▁ठु": 5003,
      "▁अग्": 5004,
      "▁सकिन्छ": 5005,
      ":३": 5006,
      "▁खि": 5007,
      "▁आइपुग": 5008,
      "घन": 5009,
      "▁६१": 5010,
      "▁आय": 5011,
      "ेटिभ": 5012,
      "▁केन्द्रको": 5013,
      "▁सवारीसा": 5014,
      ":४": 5015,
      "▁मञ्च": 5016,
      "▁मोर्चा": 5017,
      "▁अष्ट्र": 5018,
      "▁हस्त": 5019,
      "पादन": 5020,
      "▁औद्योग": 5021,
      "थे।": 5022,
      "क्षी": 5023,
      "▁फिल्मको": 5024,
      "▁ठेक": 5025,
      "तीय": 5026,
      "▁ओलीको": 5027,
      "▁गरिरह": 5028,
      "▁पूर्वी": 5029,
      "▁६२": 5030,
      "▁घटनाको": 5031,
      "▁कानून": 5032,
      "▁फरार": 5033,
      "▁कोरि": 5034,
      "▁महसुस": 5035,
      "▁२०७३": 5036,
      "▁हल्का": 5037,
      "नर": 5038,
      "▁भुस": 5039,
      "▁राख्दै": 5040,
      "▁प्रतिनिधित्व": 5041,
      "▁नाफा": 5042,
      "▁चाँड": 5043,
      "▁भू-": 5044,
      "ल्स": 5045,
      "▁नगर्न": 5046,
      "▁निर्मा": 5047,
      "▁६३": 5048,
      "▁सुरक्षाकर्मी": 5049,
      "▁मुस्ता": 5050,
      "▁सफा": 5051,
      "/७": 5052,
      "▁बहादुर": 5053,
      "▁५९": 5054,
      "▁निम": 5055,
      "▁काराग": 5056,
      "सीमा": 5057,
      "▁नेताले": 5058,
      "ट,": 5059,
      "▁बरा": 5060,
      "▁हक": 5061,
      "▁दुख": 5062,
      "▁सडकको": 5063,
      "▁विधा": 5064,
      "र्की": 5065,
      "▁विदेशमा": 5066,
      "▁महतो": 5067,
      "▁विपद्": 5068,
      "▁रामचन्द्र": 5069,
      "▁प्रि": 5070,
      "राष्ट्रिय": 5071,
      "▁योग्य": 5072,
      "हिल्यै": 5073,
      "▁ठाकुर": 5074,
      "▁आउँदा": 5075,
      "▁सेनाको": 5076,
      "▁पाण्डे": 5077,
      "▁प्राथमिकतामा": 5078,
      "▁पुस्ता": 5079,
      "ेशन": 5080,
      "▁लागेर": 5081,
      "▁हुँदैन": 5082,
      "यले": 5083,
      "▁मक": 5084,
      "▁रिट": 5085,
      "▁नभएका": 5086,
      "▁प्रदीप": 5087,
      "▁धनु": 5088,
      "▁घाटा": 5089,
      "▁अध्यादेश": 5090,
      "▁उठा": 5091,
      "▁भएसँगै": 5092,
      "▁बर्दि": 5093,
      "तु": 5094,
      "▁घट्": 5095,
      "▁निर्धारित": 5096,
      "घर": 5097,
      "▁बयान": 5098,
      "लाइन्स": 5099,
      "▁तोकेको": 5100,
      "▁प्रहरीका": 5101,
      "▁सुपर": 5102,
      "▁लागत": 5103,
      "धिकारिक": 5104,
      "▁क्रान्ति": 5105,
      "▁कार्यमा": 5106,
      "▁चल्ने": 5107,
      "▁संघले": 5108,
      "▁६७": 5109,
      "▁छन।": 5110,
      "पिट": 5111,
      "जनमा": 5112,
      "▁बसो": 5113,
      "▁भुट": 5114,
      "▁जोडिएको": 5115,
      "▁अभिव्यक्ति": 5116,
      "▁वर्षपछि": 5117,
      "▁भरतपुर": 5118,
      "ेवार": 5119,
      "▁कठिन": 5120,
      "▁डेढ": 5121,
      "▁रेक": 5122,
      "▁भेटिएको": 5123,
      "▁एन्ड": 5124,
      "▁रुपैयाँमा": 5125,
      "क्षेत्र": 5126,
      "▁इतिहास": 5127,
      "▁उदाहरण": 5128,
      "▁हुँदैछ।": 5129,
      "पाटी": 5130,
      "▁समीक्षा": 5131,
      "स्थ्य": 5132,
      "▁दिनसम्म": 5133,
      "▁६८": 5134,
      "▁पाइन्छ।": 5135,
      "▁जमिन": 5136,
      "▁यसबाट": 5137,
      "▁सरुवा": 5138,
      ".१": 5139,
      "▁६६": 5140,
      "▁रातो": 5141,
      "▁ह्या": 5142,
      "▁उन्": 5143,
      "▁साउदी": 5144,
      "▁सङ्कलन": 5145,
      "कारण": 5146,
      "▁आधिकारिक": 5147,
      "बजार": 5148,
      "▁अफ्र": 5149,
      "र्को": 5150,
      "▁कतार": 5151,
      "▁अप्": 5152,
      "▁आधारभूत": 5153,
      "ालका": 5154,
      "विन": 5155,
      "▁होम": 5156,
      "▁पाइने": 5157,
      "पक्षीय": 5158,
      "▁अन्नपूर्ण": 5159,
      "▁अन्तरि": 5160,
      "▁इजराय": 5161,
      "▁अपा": 5162,
      "▁नगरपालिका-१": 5163,
      "▁प्रशासक": 5164,
      "▁धरान": 5165,
      "▁संस्थाको": 5166,
      "▁यौ": 5167,
      "▁शिवि": 5168,
      "▁त्यसो": 5169,
      "▁केजी": 5170,
      "▁हटा": 5171,
      "वद्ध": 5172,
      "▁बढेर": 5173,
      "▁विमानस्थलमा": 5174,
      "▁स्टार": 5175,
      "▁महर्जन": 5176,
      "जस्तै": 5177,
      "▁चाड": 5178,
      "▁टोलीको": 5179,
      "▁मौका": 5180,
      "नोद": 5181,
      "गाई": 5182,
      "▁प्रथम": 5183,
      "टले": 5184,
      "▁प्रक्रियामा": 5185,
      "▁बहि": 5186,
      "हरुसँग": 5187,
      "▁परिवारलाई": 5188,
      "▁होस्": 5189,
      "नाम": 5190,
      "खण्ड": 5191,
      "▁घिमिरेले": 5192,
      "शालामा": 5193,
      "▁भएन।": 5194,
      "▁९५": 5195,
      "नुपर्छ,": 5196,
      "▁काठमाण्ड": 5197,
      ":१": 5198,
      "द्रो": 5199,
      "▁पुग्": 5200,
      "▁परिचय": 5201,
      "▁स्मरण": 5202,
      "▁पार्टीमा": 5203,
      "नेन्द्र": 5204,
      "जत": 5205,
      "▁गरिसकेका": 5206,
      "▁कैद": 5207,
      "▁परिवारका": 5208,
      "▁नभएर": 5209,
      "▁थुप्रै": 5210,
      "▁अत्यन्त": 5211,
      "▁दावी": 5212,
      "▁सुनस": 5213,
      "▁हुनुपर्छ।": 5214,
      "▁आगलागी": 5215,
      "▁निकालेको": 5216,
      "▁सभाको": 5217,
      "नाइटेड": 5218,
      "▁चौकी": 5219,
      "ारुढ": 5220,
      "▁कर्मचारीको": 5221,
      "▁ठेकेदार": 5222,
      "▁२०४": 5223,
      "▁संख्यामा": 5224,
      "झदारी": 5225,
      "चोक": 5226,
      "▁समृद्ध": 5227,
      "र्फत्": 5228,
      "▁अस्पतालका": 5229,
      "भेद": 5230,
      "▁कतै": 5231,
      "▁करण": 5232,
      "▁भाइरसको": 5233,
      "▁कार्ड": 5234,
      "▁हिमाली": 5235,
      "▁तोड": 5236,
      "▁गौतमले": 5237,
      "नुभएका": 5238,
      "▁अस्वी": 5239,
      "▁रहेर": 5240,
      "▁सल": 5241,
      "▁भारी": 5242,
      "▁असफल": 5243,
      "गमा": 5244,
      "▁औद्योगिक": 5245,
      "पोख": 5246,
      "विहीन": 5247,
      "▁कामको": 5248,
      "▁पारे।": 5249,
      "▁कोइरालाले": 5250,
      "▁एजेन्सी": 5251,
      "खित": 5252,
      "▁प्रमाणपत्र": 5253,
      "▁क्षेत्रबाट": 5254,
      "लाग": 5255,
      "▁हमा": 5256,
      "▁सत्तारुढ": 5257,
      "▁रोज": 5258,
      "▁सरोकारवाला": 5259,
      "▁लगाइ": 5260,
      "दछ।": 5261,
      "▁बराबरी": 5262,
      "▁समाजमा": 5263,
      "क्कली": 5264,
      "▁हुनेछन्।": 5265,
      ".२": 5266,
      "▁बम": 5267,
      "▁कम्पनीका": 5268,
      "▁माथिल्लो": 5269,
      "न्टा": 5270,
      "▁आधुनिक": 5271,
      "▁बौ": 5272,
      "▁समूहमा": 5273,
      "▁तालिका": 5274,
      "▁मजदुर": 5275,
      "क्न": 5276,
      "▁मकवान": 5277,
      "▁बदली": 5278,
      "▁डिजिटल": 5279,
      "▁वर्षाको": 5280,
      "स्थायी": 5281,
      "▁हो?": 5282,
      "दरबार": 5283,
      "ह्रो": 5284,
      "▁उत्पन्न": 5285,
      "्याल": 5286,
      "औष": 5287,
      "▁७१": 5288,
      "ली,": 5289,
      "▁मारि": 5290,
      "▁पहिलोपटक": 5291,
      "▁अमेरिकाले": 5292,
      "मूलक": 5293,
      "▁एण्ड": 5294,
      "▁गुणस्तर": 5295,
      "▁राष्ट्रियसभा": 5296,
      "तीको": 5297,
      "▁सुरुवात": 5298,
      "▁काभ": 5299,
      "▁सालको": 5300,
      "▁युनाइटेड": 5301,
      "चो": 5302,
      "▁पीडा": 5303,
      "▁आइसोले": 5304,
      "▁संविधानसभा": 5305,
      "▁संकेत": 5306,
      "▁अर्जुन": 5307,
      "श्": 5308,
      "▁जरिवाना": 5309,
      "चण्ड": 5310,
      "▁खाद्या": 5311,
      "करणको": 5312,
      "▁गायक": 5313,
      "▁यसबारे": 5314,
      "▁नपाउने": 5315,
      "▁२०८१": 5316,
      "कल्प": 5317,
      "▁पछिल्ला": 5318,
      "▁बाली": 5319,
      ":५": 5320,
      "मण्ड": 5321,
      "▁क्यान्स": 5322,
      "▁माटो": 5323,
      "गन": 5324,
      "न्डै": 5325,
      "ड्ड": 5326,
      "▁उपाय": 5327,
      "▁चलाउन": 5328,
      "▁असु": 5329,
      ")का": 5330,
      "▁सत": 5331,
      "▁गर्दछ।": 5332,
      "▁थिए,": 5333,
      "▁बाध्यता": 5334,
      "▁राज्यले": 5335,
      "धारा": 5336,
      "▁पोखरामा": 5337,
      "▁स्रोतले": 5338,
      "▁मौलिक": 5339,
      "▁बस्नेतले": 5340,
      "▁टन": 5341,
      "ण्डाै": 5342,
      "संस्था": 5343,
      "▁विघटन": 5344,
      "▁बेल": 5345,
      "▁मुक्त": 5346,
      "▁इरान": 5347,
      "▁बेलामा": 5348,
      "▁खरिददर": 5349,
      "▁नक्कली": 5350,
      "▁शुभकामना": 5351,
      "▁आत": 5352,
      "▁खेलाडीले": 5353,
      "पाठ": 5354,
      "▁संघको": 5355,
      "▁पृथ्वी": 5356,
      "्याएको": 5357,
      "▁७४": 5358,
      "▁हाइड्रो": 5359,
      "▁संकट": 5360,
      "स्टि": 5361,
      "▁विना": 5362,
      "▁उपलब्धि": 5363,
      "▁आफु": 5364,
      "▁सल्लाहकार": 5365,
      "परा": 5366,
      "▁क्रमशः": 5367,
      "▁काठमाण्डाै": 5368,
      "▁उड": 5369,
      "▁रुपन्देही": 5370,
      "▁रेकर्ड": 5371,
      "रास": 5372,
      ".३": 5373,
      "▁भलि": 5374,
      "▁लिइ": 5375,
      "▁पाकिस्तान": 5376,
      "▁बजेटमा": 5377,
      "ालगायत": 5378,
      "▁उपसभा": 5379,
      "▁प्रतिपक्षी": 5380,
      "▁भावना": 5381,
      "▁चोरी": 5382,
      "▁भइसकेका": 5383,
      "▁बजेदेखि": 5384,
      "▁खाली": 5385,
      "▁पुनर्निर्माण": 5386,
      "र्दा": 5387,
      "▁सञ्चारमा": 5388,
      "▁पत्ता": 5389,
      "राष्ट्रपति": 5390,
      "त्वमा": 5391,
      "▁कालोपत्र": 5392,
      "▁मिश्र": 5393,
      "▁प्रसाद": 5394,
      "▁हटाउन": 5395,
      "▁टोलीमा": 5396,
      "लिज": 5397,
      "▁भ्रमणमा": 5398,
      "▁७३": 5399,
      "▁झन्डै": 5400,
      "▁अस्पतालको": 5401,
      "▁सिजन": 5402,
      "▁वर्षे": 5403,
      "▁२०७२": 5404,
      "▁जाँदै": 5405,
      "▁स्वार्थ": 5406,
      "र्दै": 5407,
      "▁खत्री": 5408,
      "▁सँगै": 5409,
      "▁विज्ञप्ति": 5410,
      "जरको": 5411,
      "▁सञ्चालित": 5412,
      "भाविक": 5413,
      "▁९९": 5414,
      "▁तथ्य": 5415,
      "औषध": 5416,
      "▁स्कुल": 5417,
      "▁वटै": 5418,
      "▁भिड": 5419,
      "▁रुपैयाँको": 5420,
      "साई": 5421,
      "▁भिसा": 5422,
      "▁जै": 5423,
      "▁महिलालाई": 5424,
      "▁बताउनुभएको": 5425,
      "र्देश": 5426,
      "▁अङ्क": 5427,
      "▁संवाद": 5428,
      "▁चोक": 5429,
      "निङ": 5430,
      "रोधी": 5431,
      "रिक्त": 5432,
      "▁खेलेको": 5433,
      "▁'ज": 5434,
      "▁छाया": 5435,
      "▁खनालले": 5436,
      "हरा": 5437,
      "▁थापा,": 5438,
      "▁केश": 5439,
      "▁पुस्तक": 5440,
      "▁प्रकाशन": 5441,
      "▁पाल्": 5442,
      "▁गराए।": 5443,
      "क्कर": 5444,
      "▁यहाँको": 5445,
      "▁विद्यार्थीलाई": 5446,
      "▁अभिनेता": 5447,
      "▁उपत्यकामा": 5448,
      "▁अस्थायी": 5449,
      "▁कर्मचारीलाई": 5450,
      "▁महत्त्वपूर्ण": 5451,
      "▁एश": 5452,
      "ढु": 5453,
      "▁अभियोग": 5454,
      "▁देखिए": 5455,
      "▁नेताहरू": 5456,
      "▁व्यापक": 5457,
      "याली": 5458,
      "ंग्": 5459,
      "▁धनुषा": 5460,
      "▁खतरा": 5461,
      "▁जितेका": 5462,
      "▁टाढा": 5463,
      "▁चलाउने": 5464,
      "▁एसियाली": 5465,
      "▁ओपन": 5466,
      "▁खाद्यान्न": 5467,
      "भोग": 5468,
      "▁सेवाग्राही": 5469,
      "▁समझदारी": 5470,
      "▁त्यतिबेला": 5471,
      "केको": 5472,
      ".४": 5473,
      "▁गुल्": 5474,
      "▁चर्चित": 5475,
      "▁फेसबु": 5476,
      "▁भत्ता": 5477,
      "▁एफ": 5478,
      "▁लाग्छ।": 5479,
      "▁मद्द": 5480,
      "▁कुँ": 5481,
      "▁कूट": 5482,
      "▁दिगो": 5483,
      "▁हावा": 5484,
      "▁टोलीका": 5485,
      "▁घुम्": 5486,
      "▁नेप्से": 5487,
      "▁प्रवर्द्ध": 5488,
      "▁ठगी": 5489,
      "ेरु": 5490,
      "▁ताप": 5491,
      "▁सरस": 5492,
      "▁अतिरिक्त": 5493,
      "▁पुराना": 5494,
      "▁जटिल": 5495,
      "▁धितो": 5496,
      "▁भागमा": 5497,
      "ह्न": 5498,
      "▁नियमावली": 5499,
      "▁व्यवसायीले": 5500,
      "▁सम्मा": 5501,
      "▁ज्ञानेन्द्र": 5502,
      "▁पछ": 5503,
      "▁ढुवानी": 5504,
      "नन्द": 5505,
      "▁!": 5506,
      "खोला": 5507,
      "▁वास्तविक": 5508,
      "▁कपि": 5509,
      "▁हो।'": 5510,
      "▁सञ्जालमा": 5511,
      "▁वडामा": 5512,
      "▁अस्पतालले": 5513,
      "लाही": 5514,
      "▁सञ्चारमाध्यम": 5515,
      "रिक": 5516,
      "▁७८": 5517,
      "▁घण्टामा": 5518,
      "▁दिनेश": 5519,
      "▁जनाउँदै": 5520,
      "▁गाह्रो": 5521,
      "▁अल्": 5522,
      "▁विभाजन": 5523,
      "योग्य": 5524,
      "▁दिल्ली": 5525,
      "▁संक्रमितको": 5526,
      "ौल": 5527,
      "▁शरण": 5528,
      "▁बनि": 5529,
      "्यारा": 5530,
      "▁चिसो": 5531,
      "ङक": 5532,
      "▁आबद्ध": 5533,
      "▁मी": 5534,
      "▁लघुव": 5535,
      "▁गौरव": 5536,
      "रीलाई": 5537,
      "▁अन्": 5538,
      "रहवा": 5539,
      "प्रमुख": 5540,
      "▁सजिलो": 5541,
      "सल": 5542,
      "▁काठमाडौं-": 5543,
      "▁दरले": 5544,
      "रस": 5545,
      "क्सन": 5546,
      "▁इन्द्र": 5547,
      "▁६९": 5548,
      "▁भूभाग": 5549,
      "ाधीन": 5550,
      "▁मिल्ने": 5551,
      "▁टोल": 5552,
      "▁राव": 5553,
      "।'": 5554,
      "मुखी": 5555,
      "▁बोकेर": 5556,
      "▁सहायता": 5557,
      "▁लाग्न": 5558,
      "▁गोविन्द": 5559,
      "प्रिय": 5560,
      "▁छौं,": 5561,
      "▁पर्सा": 5562,
      "टीको": 5563,
      "▁रौतह": 5564,
      "▁पर्ख": 5565,
      ")ले": 5566,
      "▁८८": 5567,
      "▁जित्ने": 5568,
      "▁तल": 5569,
      "होस्": 5570,
      "▁विनोद": 5571,
      "▁सैन्य": 5572,
      "▁पाउँ": 5573,
      "ंख": 5574,
      "▁स्वयं": 5575,
      "▁विश्वका": 5576,
      "लम्बन": 5577,
      "▁काठमाण्डौ": 5578,
      "▁शाहले": 5579,
      "▁दिएपछि": 5580,
      "▁दरबार": 5581,
      ".६": 5582,
      "पुल": 5583,
      "▁अस्ट्रेलिया": 5584,
      "▁गुणस्तरीय": 5585,
      "▁लामिछानेले": 5586,
      "▁(एमाले": 5587,
      "▁यसैबीच": 5588,
      "मीण": 5589,
      "▁जिम्मेवार": 5590,
      "ल्पना": 5591,
      "▁स्ना": 5592,
      "गरमाथा": 5593,
      "▁जोखिममा": 5594,
      "▁खाता": 5595,
      "लेन्स": 5596,
      "▁भेटवार्ता": 5597,
      "▁बाँध": 5598,
      "▁भेटि": 5599,
      "जात": 5600,
      "▁पुर्याउन": 5601,
      "▁बौद्ध": 5602,
      "▁रोहित": 5603,
      "सनमा": 5604,
      "क्सी": 5605,
      "▁हात्ती": 5606,
      "क्वा": 5607,
      "▁ऐन,": 5608,
      "क्षम": 5609,
      "▁तार": 5610,
      "▁लाग्छ": 5611,
      "▁हल": 5612,
      "निस": 5613,
      "वीर": 5614,
      "▁प्रतिपक्ष": 5615,
      "▁छुट्टै": 5616,
      "ठो": 5617,
      "ेकै": 5618,
      "▁बहा": 5619,
      "▁एयरलाइन्स": 5620,
      "▁भन्नुभयो।": 5621,
      "▁भोज": 5622,
      "थी": 5623,
      "यरमा": 5624,
      "▁प्रहरीलाई": 5625,
      "▁सर्लाही": 5626,
      "▁उत्त": 5627,
      "▁नेपालीको": 5628,
      "▁ग्रहण": 5629,
      "▁खास": 5630,
      "▁८४": 5631,
      "किन": 5632,
      "▁कहिल्यै": 5633,
      "▁बिना": 5634,
      "थ्यो।": 5635,
      "▁सीप": 5636,
      "▁(क": 5637,
      "▁बताउनु": 5638,
      "▁चलिरहेको": 5639,
      "नीकरण": 5640,
      "ानै": 5641,
      "▁नु": 5642,
      "▁पठाइ": 5643,
      "▁आसपा": 5644,
      "▁दुर्गा": 5645,
      "▁छ?": 5646,
      "▁चलन": 5647,
      "▁काली": 5648,
      "▁रेख": 5649,
      "▁१९९": 5650,
      "्नो": 5651,
      "बाबु": 5652,
      "▁आकाश": 5653,
      "▁स्पे": 5654,
      "▁छक्का": 5655,
      "▁भोग": 5656,
      "▁बिक्रीदर": 5657,
      "▁ग्रामीण": 5658,
      "▁मध्यम": 5659,
      "सीय": 5660,
      "बमोजिम": 5661,
      "▁उसको": 5662,
      "▁वैज्ञानिक": 5663,
      "▁किसानलाई": 5664,
      "▁उड्ड": 5665,
      "कोण": 5666,
      "▁बिमा": 5667,
      "▁कपडा": 5668,
      "▁नीतिगत": 5669,
      "▁पठाउन": 5670,
      "▁आइरहेको": 5671,
      "▁बताइ": 5672,
      "सेल": 5673,
      "▁समुदायको": 5674,
      "▁पेन": 5675,
      "▁एल": 5676,
      "▁बैंकिङ": 5677,
      "▁पुगि": 5678,
      "▁गरिदि": 5679,
      "▁२०२०": 5680,
      "▁सेत": 5681,
      "'मा": 5682,
      "▁एन्फा": 5683,
      "▁बनाउँदै": 5684,
      "▁सङ्गठ": 5685,
      "केट": 5686,
      "प्रा": 5687,
      "▁परिसर": 5688,
      "▁गठबन्धनको": 5689,
      "▁हाउ": 5690,
      "▁रहन": 5691,
      "ूहिक": 5692,
      "▁अलि": 5693,
      "▁रुकु": 5694,
      "▁गुरुङ,": 5695,
      "▁महाशाखाले": 5696,
      "▁शंका": 5697,
      "▁इन": 5698,
      "▁बुझ्न": 5699,
      "▁प्राय": 5700,
      "▁पर्यट": 5701,
      "मीको": 5702,
      "▁आया": 5703,
      "जुर": 5704,
      "▁नाटक": 5705,
      "▁कर्मचारीले": 5706,
      "▁रहँदा": 5707,
      "▁भीड": 5708,
      "क्रममा": 5709,
      "▁रियल": 5710,
      "▁'प्रचण्ड": 5711,
      ":२": 5712,
      ":०": 5713,
      "▁असह": 5714,
      "▁अभिनेत्री": 5715,
      "▁नसकिने": 5716,
      "▁विव": 5717,
      "उड": 5718,
      "▁गर्नुहु": 5719,
      "▁विश्लेषण": 5720,
      "▁सगरमाथा": 5721,
      "▁सहसचिव": 5722,
      "स्वपा": 5723,
      "▁विशाल": 5724,
      "८०": 5725,
      "▁सकेनन्।": 5726,
      "▁पढाइ": 5727,
      "▁आउँदै": 5728,
      "लम्प": 5729,
      "▁सदस्यको": 5730,
      "▁पुनले": 5731,
      "म्मद": 5732,
      "▁सिंहदरबार": 5733,
      "▁तनाव": 5734,
      "▁सूचीमा": 5735,
      "▁भयो,": 5736,
      "ल्दा": 5737,
      "▁मङ्गल": 5738,
      "▁बिहीबार।": 5739,
      "▁चालू": 5740,
      "▁प्रोत्साहन": 5741,
      "▁क्रियाकला": 5742,
      "▁सामूहिक": 5743,
      "स्यौ": 5744,
      "▁भैरहवा": 5745,
      "▁नष्ट": 5746,
      "मुना": 5747,
      "ँदे": 5748,
      "▁सिम": 5749,
      "यको": 5750,
      "▁भू-भाग": 5751,
      "▁कोरोनाको": 5752,
      "▁टेलिक": 5753,
      "▁तिहार": 5754,
      "▁फैलिएको": 5755,
      "▁पोस्ट": 5756,
      "▁श्रेष्ठको": 5757,
      "▁नरेन्द्र": 5758,
      "▁परे": 5759,
      "▁प्रशासनले": 5760,
      "▁स्थानीयवासी": 5761,
      "▁सोमबार।": 5762,
      "स्सा": 5763,
      "▁विद्रो": 5764,
      "▁कक्ष": 5765,
      "▁तल्लो": 5766,
      "▁तुलसी": 5767,
      "▁अक्सि": 5768,
      "▁आकर्षण": 5769,
      "पान्तरण": 5770,
      "पश्च": 5771,
      "▁युएई": 5772,
      "प्टे": 5773,
      "क्कै": 5774,
      "▁टस": 5775,
      "▁रणनीति": 5776,
      "कालमा": 5777,
      "▁हराएको": 5778,
      "▁प्रष्ट": 5779,
      "▁जित्न": 5780,
      "सम्मका": 5781,
      "▁विभागको": 5782,
      "▁जिक": 5783,
      "बिर": 5784,
      "▁लिगमा": 5785,
      "▁भत्का": 5786,
      "▁जनाए।": 5787,
      "▁गएपछि": 5788,
      "▁अभियानमा": 5789,
      "▁सुन्त": 5790,
      "▁मंगलबार।": 5791,
      "▁इच्छा": 5792,
      "▁सम्पदा": 5793,
      "तया": 5794,
      "▁बुधबार।": 5795,
      "स्थापित": 5796,
      "▁कार्यक्रमलाई": 5797,
      "▁स्याउ": 5798,
      "▁८७": 5799,
      "▁ल्याएका": 5800,
      "रै": 5801,
      "ट्स": 5802,
      "रहने": 5803,
      "▁सिमेन्ट": 5804,
      "▁ग्या": 5805,
      "भूति": 5806,
      "▁क्वा": 5807,
      "▁कार्तिक": 5808,
      "▁टेक": 5809,
      "स्ने": 5810,
      "▁हुनेमा": 5811,
      "▁८१": 5812,
      "▁परम्परागत": 5813,
      "▁महोत्त": 5814,
      "▁शिक्षण": 5815,
      "▁खेल्दै": 5816,
      "▁प्रालि": 5817,
      "तडी": 5818,
      "▁मनाइ": 5819,
      "▁सहयोगी": 5820,
      "▁मिल": 5821,
      "▁खेलेका": 5822,
      "▁दिनदेखि": 5823,
      "▁बिग्र": 5824,
      "स्फो": 5825,
      "▁फ्र": 5826,
      "▁संयन्त्र": 5827,
      "▁उल्ल": 5828,
      "▁पात्र": 5829,
      "▁च्याम्पियनसि": 5830,
      "प्रधानमन्त्री": 5831,
      "▁राइ": 5832,
      "▁हजार,": 5833,
      "▁एसपी": 5834,
      "▁सुनाए।": 5835,
      "▁आन्दोलनमा": 5836,
      "थान": 5837,
      "▁मानवीय": 5838,
      "▁क्षमताको": 5839,
      "▁अलपत्र": 5840,
      "▁शाहीले": 5841,
      "▁कुशल": 5842,
      "▁यौन": 5843,
      "▁श्रा": 5844,
      "वती": 5845,
      "▁फर्किएका": 5846,
      "गणना": 5847,
      "युद्ध": 5848,
      "-४": 5849,
      "▁भाउ": 5850,
      "▁राखि": 5851,
      "▁सुत्": 5852,
      "▁जसरी": 5853,
      "▁दिनभित्र": 5854,
      "▁८२": 5855,
      "ेकाले": 5856,
      "क्की": 5857,
      "▁अष्ट्रेलिया": 5858,
      "▁बाबुराम": 5859,
      "पोर्": 5860,
      "▁उपभोग": 5861,
      "▁सिमा": 5862,
      "▁निर्णा": 5863,
      "न्डर": 5864,
      "▁खेलाडीको": 5865,
      "▁प्रकारका": 5866,
      "▁प्रकरणमा": 5867,
      "▁काठ": 5868,
      "▁विश्वव्यापी": 5869,
      "▁मोहन": 5870,
      "▁बाटोमा": 5871,
      "▁मासिक": 5872,
      "▁हेक्टर": 5873,
      "▁प्रस्तु": 5874,
      "▁धादि": 5875,
      "▁बोल": 5876,
      "▁भरि": 5877,
      "्यव": 5878,
      "▁धन्य": 5879,
      "▁शपथ": 5880,
      "▁सुरुमा": 5881,
      "▁आइतबार।": 5882,
      "▁९१": 5883,
      "▁रोनाल्": 5884,
      "▁अफ्रिका": 5885,
      "आउ": 5886,
      "िमी": 5887,
      "▁८६": 5888,
      "▁ओलम्प": 5889,
      "▁किरण": 5890,
      "▁७९": 5891,
      "ब्र": 5892,
      "वण": 5893,
      "▁लेखेका": 5894,
      "▁उत्पादनमा": 5895,
      "▁घरको": 5896,
      "▁माओवादीले": 5897,
      "▁परिवारको": 5898,
      "▁मावि": 5899,
      "सरकार": 5900,
      "▁पार्टीलाई": 5901,
      "र्जी": 5902,
      "▁रोपनी": 5903,
      "▁बढिरहेको": 5904,
      "▁मात्रामा": 5905,
      "▁चलेको": 5906,
      "▁आशंका": 5907,
      "वश्यक": 5908,
      "ाउको": 5909,
      "▁उड्डयन": 5910,
      "डाइ": 5911,
      "▁कसैलाई": 5912,
      "▁खसेको": 5913,
      "▁प्राधिकरणका": 5914,
      "▁अस्वीकार": 5915,
      "▁अडान": 5916,
      "▁८३": 5917,
      "▁उभि": 5918,
      "▁मस्यौ": 5919,
      "▁हुन्थ": 5920,
      "▁लिइएको": 5921,
      "▁सिक": 5922,
      "▁महिलाले": 5923,
      "▁दिशा": 5924,
      "▁सन्ता": 5925,
      "▁९२": 5926,
      "▁लैजान": 5927,
      "कल्पिक": 5928,
      "▁खपत": 5929,
      "जिङ": 5930,
      "▁खासै": 5931,
      "▁९८": 5932,
      "▁प्रशासकीय": 5933,
      "▁संस्थान": 5934,
      "▁शुक्रबार।": 5935,
      "▁बैतडी": 5936,
      "▁अवलोकन": 5937,
      "प्रकाश": 5938,
      "▁अल्प": 5939,
      "ब्बा": 5940,
      "▁सक्छन्।": 5941,
      "▁स्तरो": 5942,
      "▁इन्ध": 5943,
      "▁नाच": 5944,
      "▁अध्यक्षमा": 5945,
      "▁सुदृ": 5946,
      "▁अत्यधिक": 5947,
      "▁९३": 5948,
      "भने": 5949,
      "सिए": 5950,
      "▁ग्लो": 5951,
      "बिया": 5952,
      "न्ह": 5953,
      "ृति": 5954,
      "▁तिम": 5955,
      "▁ट्रम्पले": 5956,
      "▁निर्णायक": 5957,
      "▁दुईवटा": 5958,
      "छौं।": 5959,
      "पार्क": 5960,
      "▁स्थिर": 5961,
      "▁मानिसको": 5962,
      "सम्ममा": 5963,
      "▁भलिबल": 5964,
      "▁९६": 5965,
      "▁बगा": 5966,
      ")को": 5967,
      "▁संशोध": 5968,
      "र्खा": 5969,
      "▁फलफ": 5970,
      "'ले": 5971,
      "▁वीरेन्द्र": 5972,
      "▁जितेर": 5973,
      "▁अक्": 5974,
      "▁शिक्षा,": 5975,
      "बुझ": 5976,
      "▁जोडी": 5977,
      "▁गाय": 5978,
      "▁दोषी": 5979,
      "▁आरोहण": 5980,
      "मिर": 5981,
      "▁ठक्कर": 5982,
      "स्थलको": 5983,
      "एमा": 5984,
      "▁आजै": 5985,
      "▁पारेर": 5986,
      "▁सरकारबाट": 5987,
      "सनल": 5988,
      "भल": 5989,
      "▁नपर्ने": 5990,
      "▁जोगाउन": 5991,
      "▁बाँच": 5992,
      "जीकरण": 5993,
      "▁मस्यौदा": 5994,
      "मैत्री": 5995,
      "▁बिता": 5996,
      "▁परियार": 5997,
      "▁रिलिज": 5998,
      "▁हेरि": 5999,
      "▁बाढीले": 6000,
      "▁सहि": 6001,
      "▁संचालन": 6002,
      "▁निगमले": 6003,
      "▁ज्य": 6004,
      "▁महासंघका": 6005,
      "मुनि": 6006,
      "▁गरेकाले": 6007,
      "▁कार्यालय,": 6008,
      "सिसी": 6009,
      "न्ती": 6010,
      "▁खेलाडीलाई": 6011,
      "▁जिकिर": 6012,
      "▁मार्": 6013,
      "ङ्का": 6014,
      "▁ब्रि": 6015,
      "जय": 6016,
      "▁स्तरोन्न": 6017,
      "▁व्यस्त": 6018,
      "▁एमसीसी": 6019,
      "▁रात": 6020,
      "▁उपचारको": 6021,
      "▁लडा": 6022,
      "▁९७": 6023,
      "▁चाप": 6024,
      "▁निर्माता": 6025,
      "▁नेताहरु": 6026,
      "ेरा": 6027,
      "▁सुशासन": 6028,
      "▁वकि": 6029,
      "▁हैसिय": 6030,
      "▁त्रिवि": 6031,
      "यात्रा": 6032,
      "▁रगत": 6033,
      "▁हङक": 6034,
      "▁जंग": 6035,
      "यमित": 6036,
      "बाहि": 6037,
      "▁वृद्ध": 6038,
      "▁महँग": 6039,
      "▁ब्राजि": 6040,
      "र्ना": 6041,
      "▁मुक्ति": 6042,
      "▁राई,": 6043,
      "▁डिजाइ": 6044,
      "▁सापकोटा": 6045,
      "▁हकमा": 6046,
      "स्थापना": 6047,
      "▁चेत": 6048,
      "▁मासु": 6049,
      "▁विद्यार्थीको": 6050,
      "▁ज्येष्ठ": 6051,
      "▁नेपालगञ्ज": 6052,
      "▁राय": 6053,
      "▁निर्वाचनका": 6054,
      "▁मातह": 6055,
      "▁चरि": 6056,
      "रूद्ध": 6057,
      "▁अधिकतम": 6058,
      "▁विद्यालयको": 6059,
      "▁लोकप्रिय": 6060,
      "▁रक्त": 6061,
      "▁२०१९": 6062,
      "मणि": 6063,
      "▁तरिकाले": 6064,
      "▁वीरगन्ज": 6065,
      "▁लिखित": 6066,
      "▁नागरिकले": 6067,
      "▁प्रणालीमा": 6068,
      "▁जनमत": 6069,
      "▁कुँवर": 6070,
      "डाँडा": 6071,
      "▁२०२२": 6072,
      "▁हेरेर": 6073,
      "रम": 6074,
      "▁ब्याजदर": 6075,
      "▁बोर्डले": 6076,
      "▁हारा": 6077,
      "भग": 6078,
      "▁रोकथा": 6079,
      "▁बराबर": 6080,
      "नेका": 6081,
      "टारमा": 6082,
      "समक्ष": 6083,
      "भक्त": 6084,
      "▁बुझाइ": 6085,
      "▁स्मार्ट": 6086,
      "ड्रि": 6087,
      "▁विस्तृत": 6088,
      "▁नुवा": 6089,
      "▁इंग्": 6090,
      "▁महानिर्देश": 6091,
      "नी,": 6092,
      "▁आपत्ति": 6093,
      "नुहुन्छ।": 6094,
      "सुवा": 6095,
      "▁अनेक": 6096,
      "▁धन्यवाद": 6097,
      "▁पुनरा": 6098,
      "▁अध्यक्षतामा": 6099,
      "्याग": 6100,
      "▁प्रविधिको": 6101,
      "▁पत्": 6102,
      "▁पेनाल्": 6103,
      "▁गराइएको": 6104,
      "▁आउनु": 6105,
      "▁वाग्": 6106,
      "ारण": 6107,
      "▁सत्": 6108,
      "▁कार्यक्रमका": 6109,
      "▁पर्यटकको": 6110,
      "▁बसि": 6111,
      "▁जेष्ठ": 6112,
      "▁खनाल": 6113,
      "▁'तर": 6114,
      "ङ्गो": 6115,
      "गरानी": 6116,
      "▁दिइने": 6117,
      "▁नपुग": 6118,
      "▁छात्र": 6119,
      "▁बजेटको": 6120,
      "▁नेपाल,": 6121,
      "सेव": 6122,
      "▁पुर्याएको": 6123,
      "▁गावि": 6124,
      "टिन": 6125,
      "्चोक": 6126,
      "▁जाजरको": 6127,
      "▁भनिन्।": 6128,
      "क्षे": 6129,
      "▁माध्य": 6130,
      "▁दृष्टिकोण": 6131,
      "▁खराब": 6132,
      "▁रहनेछ।": 6133,
      "▁सदस्यले": 6134,
      "एच": 6135,
      "कां": 6136,
      "डामा": 6137,
      "▁कसुर": 6138,
      "▁नेट": 6139,
      "▁निगरानी": 6140,
      "सन्त": 6141,
      "▁कमजो": 6142,
      "▁हाराहारी": 6143,
      "▁देशलाई": 6144,
      "▁पाठ्य": 6145,
      "विका": 6146,
      "▁एक-": 6147,
      "▁तापक्रम": 6148,
      "प्ने": 6149,
      "▁सेतो": 6150,
      "▁बाघ": 6151,
      "▁खेलबाट": 6152,
      "▁रोनाल्डो": 6153,
      "▁अप्ठ": 6154,
      "▁चैत्र": 6155,
      "▁विभेद": 6156,
      "रहँदा": 6157,
      "▁८९": 6158,
      "ारू": 6159,
      "▁मुस्": 6160,
      "▁काल": 6161,
      "▁यतिबेला": 6162,
      ".७": 6163,
      "▁शंकर": 6164,
      "स्वास्थ्य": 6165,
      "▁सिर": 6166,
      "जका": 6167,
      "ौली": 6168,
      "▁मोहम्मद": 6169,
      "हत्या": 6170,
      "▁सदस्यमा": 6171,
      "पुर,": 6172,
      "▁मेलम्": 6173,
      "▁संस्थाका": 6174,
      "▁मनाउने": 6175,
      "▁पारेका": 6176,
      "▁समारोहमा": 6177,
      "▁खालको": 6178,
      "▁नेपालबाट": 6179,
      "▁मार्च": 6180,
      "▁गरिब": 6181,
      "▁अर्ध": 6182,
      "फे": 6183,
      "पाल्चोक": 6184,
      "रल": 6185,
      "▁दिनअघि": 6186,
      "▁छोटो": 6187,
      "▁एसो": 6188,
      "▁किरा": 6189,
      "▁देख्न": 6190,
      "वरी": 6191,
      "▁परिवारले": 6192,
      "▁मदन": 6193,
      "▁९४": 6194,
      "▁मेसिन": 6195,
      "▁चाहना": 6196,
      "ुक्त": 6197,
      "▁राजश्व": 6198,
      "▁न्यूनीकरण": 6199,
      "▁गर्नुपर्छ": 6200,
      "▁गरियो।": 6201,
      "▁समायोजन": 6202,
      "घरमा": 6203,
      "▁लिगको": 6204,
      "▁काउन्": 6205,
      "स्पद": 6206,
      "ग्रस्त": 6207,
      "▁पर्दा": 6208,
      "▁पेट्रोलियम": 6209,
      "▁नपाएको": 6210,
      "▁खुवा": 6211,
      "▁पौडेल,": 6212,
      "▁लम": 6213,
      "▁क्रियाशील": 6214,
      "▁देवी": 6215,
      "तजा": 6216,
      "▁विज्ञा": 6217,
      "धारणा": 6218,
      "▁त्यसअघि": 6219,
      "▁सेवामा": 6220,
      "▁सुरुङ": 6221,
      "▁ढोका": 6222,
      "▁आलु": 6223,
      "▁केहि": 6224,
      "▁स्टा": 6225,
      "▁डर": 6226,
      "▁जात्रा": 6227,
      "गल": 6228,
      "▁छिट्टै": 6229,
      "▁बनाउनु": 6230,
      "▁(ने": 6231,
      "धाज्ञा": 6232,
      "▁निकायले": 6233,
      "▁अधिवेश": 6234,
      "▁सेमिफाइनलमा": 6235,
      ".९": 6236,
      "▁छाडेर": 6237,
      "▁अगुवा": 6238,
      "▁वैकल्पिक": 6239,
      "▁टोलीलाई": 6240,
      "▁म्याग्दी": 6241,
      "▁दम": 6242,
      "▁प्रतिवद्ध": 6243,
      "▁बसोबास": 6244,
      "▁लगाए।": 6245,
      "▁बिरामीको": 6246,
      "▁फाउ": 6247,
      "▁तीनै": 6248,
      "▁क्लबले": 6249,
      "▁कार्यद": 6250,
      "▁पराजु": 6251,
      "▁बङ्ग": 6252,
      "▁बुझाएको": 6253,
      "▁सुरेन्द्र": 6254,
      "▁खटिएको": 6255,
      "▁ढिलाइ": 6256,
      "▁फैलि": 6257,
      "ेन्ड": 6258,
      "▁दिइन्।": 6259,
      "▁प्रादेशिक": 6260,
      "▁अंकले": 6261,
      "▁गठबन्धनका": 6262,
      "▁मङ्": 6263,
      "▁चक्र": 6264,
      "तर्फको": 6265,
      "▁अह": 6266,
      "जन्तु": 6267,
      "▁गे": 6268,
      "▁कालि": 6269,
      "▁सहजीकरण": 6270,
      "▁फाल्": 6271,
      "▁ठुलो": 6272,
      "▁हराउँदै": 6273,
      "▁ओभर": 6274,
      "▁अर्यालले": 6275,
      "▁कारागार": 6276,
      "▁साथमा": 6277,
      "▁सिन्धुपाल्चोक": 6278,
      "▁नदेख": 6279,
      "▁पाल्पा": 6280,
      "सहितका": 6281,
      "▁गरिबी": 6282,
      "▁सतर्क": 6283,
      "▁प्याके": 6284,
      "▁टाउको": 6285,
      "▁रह्यो।": 6286,
      "▁अधिवक्ता": 6287,
      "▁दोहोरो": 6288,
      "▁माध्यमिक": 6289,
      "▁सिनेमा": 6290,
      "डोर": 6291,
      "▁नवलपरा": 6292,
      "▁सवारीसाधन": 6293,
      "सूचक": 6294,
      "▁तारा": 6295,
      "▁विशेषज्ञ": 6296,
      "गण्डकी": 6297,
      "▁प्रकारको": 6298,
      "▁निजा": 6299,
      "▁तामाङले": 6300,
      "फ्ट": 6301,
      "▁अन्तरिम": 6302,
      "▁हजारभन्दा": 6303,
      "▁महासङ्घ": 6304,
      "▁बाँके": 6305,
      "▁आकर्षित": 6306,
      "▁सुवेदी": 6307,
      "▁भएन": 6308,
      "▁१,": 6309,
      "▁कटौ": 6310,
      "▁असन्तुष्टि": 6311,
      "▁नदिन": 6312,
      "▁उपप्रधानमन्त्री": 6313,
      "नयन": 6314,
      "▁प्रेर": 6315,
      "▁राष्ट्रसंघ": 6316,
      "ञ्जन": 6317,
      "▁योजनामा": 6318,
      "जेता": 6319,
      "न्यास": 6320,
      "लेले": 6321,
      "▁अवधारणा": 6322,
      "वेदनशील": 6323,
      "▁अबको": 6324,
      "म्की": 6325,
      "नुभन्दा": 6326,
      "▁अरब": 6327,
      "▁उपेन्द्र": 6328,
      "▁दृश्य": 6329,
      "र्नुपर्ने": 6330,
      "ालु": 6331,
      "▁अनुमो": 6332,
      "▁सहुल": 6333,
      "्वाइ": 6334,
      "▁बनाउ": 6335,
      "▁चाहिँ": 6336,
      "▁लक्षण": 6337,
      "टीले": 6338,
      "मित्व": 6339,
      "▁मन्त्रिपरिषद्को": 6340,
      "▁विवेक": 6341,
      "भूमि": 6342,
      "▁मुम्ब": 6343,
      "▁रही": 6344,
      "▁संस्थापक": 6345,
      "▁प्रतितो": 6346,
      "▁आक्रो": 6347,
      "▁गराउँदै": 6348,
      "▁तट": 6349,
      "पले": 6350,
      "▁एम्बु": 6351,
      "▁पढ्न": 6352,
      "पर्व": 6353,
      "▁शुरू": 6354,
      "▁रहेछ।": 6355,
      "नुभयो": 6356,
      "▁सन्तुल": 6357,
      "▁कुव": 6358,
      "▁मनोनयन": 6359,
      "▁विद्यार्थीले": 6360,
      "▁मदि": 6361,
      "जीवन": 6362,
      "पावर": 6363,
      "▁लाभा": 6364,
      "पुग्": 6365,
      "▁लुका": 6366,
      "▁चोट": 6367,
      "▁ओपनर": 6368,
      "ँट": 6369,
      "-५": 6370,
      "▁घन्टा": 6371,
      "▁दुर्ग": 6372,
      "▁हुनुहुन्छ।": 6373,
      "▁सापकोटाले": 6374,
      "बापत": 6375,
      "▁निषेधाज्ञा": 6376,
      "▁विश्वभर": 6377,
      "▁घर्ती": 6378,
      "▁डाइ": 6379,
      "▁साहले": 6380,
      "▁ओलम्पिक": 6381,
      "▁सेवाको": 6382,
      "▁म्यु": 6383,
      "▁०६": 6384,
      "▁उता": 6385,
      "▁दर्शन": 6386,
      "▁विद्यालयका": 6387,
      "▁पत्रमा": 6388,
      "▁ग्यास": 6389,
      "▁जोशीले": 6390,
      "▁बल्": 6391,
      "▁मोदी": 6392,
      "▁मित्र": 6393,
      "▁सहरी": 6394,
      "▁घिसि": 6395,
      "▁दीपेन्द्र": 6396,
      "/०": 6397,
      "▁फरा": 6398,
      "▁गल्ती": 6399,
      "▁उहाँका": 6400,
      "▁रिहा": 6401,
      "▁आकर्षक": 6402,
      "▁हिँ": 6403,
      "▁बनाउनुपर्ने": 6404,
      "▁सिक्": 6405,
      "▁जोडेर": 6406,
      "▁जसको": 6407,
      "ड्दै": 6408,
      "▁अर्थात": 6409,
      "ेलिकप्टर": 6410,
      "▁ल्याइ": 6411,
      "▁संचाल": 6412,
      "निर्भर": 6413,
      ".८": 6414,
      "▁गीतमा": 6415,
      "▁दाजु": 6416,
      "मा,": 6417,
      "▁मुलुकका": 6418,
      "▁बुद्धि": 6419,
      "▁खोज्ने": 6420,
      "▁गोपाल": 6421,
      "▁इन्जिनियर": 6422,
      "▁हातमा": 6423,
      "मात्रै": 6424,
      "▁मास्क": 6425,
      "▁गुमाएका": 6426,
      "सी,": 6427,
      "प्रसार": 6428,
      "▁अटो": 6429,
      "डाको": 6430,
      "▁मेट्रिक": 6431,
      "▁स्तर": 6432,
      "▁फलफूल": 6433,
      "▁नाइ": 6434,
      "▁किसिमको": 6435,
      "▁२०३": 6436,
      "▁क्यान्सर": 6437,
      "▁प्रान्त": 6438,
      "▁आयु": 6439,
      "▁युवराज": 6440,
      "लगत्तै": 6441,
      "▁स्वामित्व": 6442,
      "▁विस्फो": 6443,
      "▁दिँदा": 6444,
      "▁संविधानले": 6445,
      "▁रेखा": 6446,
      "▁प्रतितोला": 6447,
      "ताब": 6448,
      "▁नेताहरूले": 6449,
      "▁कृषक": 6450,
      "▁विस्थापित": 6451,
      "▁हस्तक्षेप": 6452,
      "▁विपरी": 6453,
      "▁बाह्य": 6454,
      "▁नभएपछि": 6455,
      "▁हेलिकप्टर": 6456,
      "नालाई": 6457,
      "▁हुनसक्": 6458,
      "-अ": 6459,
      "ेलो": 6460,
      "पीडित": 6461,
      "▁संयोजकत्वमा": 6462,
      "ेल,": 6463,
      "▁महानगरपालिकाले": 6464,
      "-पटक": 6465,
      "▁(१": 6466,
      "▁'अब": 6467,
      "▁रुख": 6468,
      "▁फ्": 6469,
      "▁अत्यावश्यक": 6470,
      "मी,": 6471,
      "▁तहले": 6472,
      "▁समयसम्म": 6473,
      "हिता": 6474,
      "▁सवार": 6475,
      "▁कैलाली": 6476,
      "▁थिएनन्।": 6477,
      "परिवार": 6478,
      "▁बढाइ": 6479,
      "प्लव": 6480,
      "▁आयोजनाले": 6481,
      "हीँ": 6482,
      "▁अनिल": 6483,
      "▁कब्जा": 6484,
      "सनको": 6485,
      "-आफ": 6486,
      "्मण": 6487,
      "▁प्रमाणित": 6488,
      "▁बैङ्क": 6489,
      "▁जला": 6490,
      "▁परा": 6491,
      "बई": 6492,
      "ँचो": 6493,
      "निय": 6494,
      "▁परेपछि": 6495,
      "▁अलग": 6496,
      "▁एम्बुलेन्स": 6497,
      "▁हाँ": 6498,
      "▁मानिन्छ।": 6499,
      "म्वा": 6500,
      "▁रुसी": 6501,
      "▁आएकी": 6502,
      "▁शरणा": 6503,
      "▁नामक": 6504,
      "▁थापाको": 6505,
      "▁राजु": 6506,
      "▁किशो": 6507,
      "▁एके": 6508,
      "▁सञ्चारकर्मी": 6509,
      "▁थाइ": 6510,
      "ानमा": 6511,
      "श्रमिक": 6512,
      "▁२०१८": 6513,
      "▁रास": 6514,
      "टी,": 6515,
      "▁लिभर": 6516,
      "थु": 6517,
      "▁एपि": 6518,
      "▁ग्लोबल": 6519,
      "▁संस्कार": 6520,
      "▁पोष्ट": 6521,
      "▁उत्पादित": 6522,
      "▁भाद्र": 6523,
      "▁राष्ट्रपतिको": 6524,
      "▁सस्तो": 6525,
      "▁शुक्": 6526,
      "▁उद्योगी": 6527,
      "र्प": 6528,
      "▁माधवकुमार": 6529,
      "▁समाप्त": 6530,
      "▁जना,": 6531,
      "वान्": 6532,
      "▁काय": 6533,
      "▁'का": 6534,
      "लेपछि": 6535,
      "▁मल्ल": 6536,
      "▁खोलामा": 6537,
      "▁समाधानका": 6538,
      "▁सन": 6539,
      "▁देवको": 6540,
      "▁आर्": 6541,
      "ेटा": 6542,
      "▁मन्त्रिपरिषद": 6543,
      "ुरे": 6544,
      "षि": 6545,
      "▁चिकित्सा": 6546,
      "▁उत्साह": 6547,
      "▁स्वदेशी": 6548,
      "▁खतिवडाले": 6549,
      "▁बताएकी": 6550,
      "▁पटक-पटक": 6551,
      "▁वर्षभित्र": 6552,
      "▁भेटघाट": 6553,
      "▁रहँदै": 6554,
      "▁संसद्मा": 6555,
      "▁मन्दिरमा": 6556,
      "▁टुंग": 6557,
      "▁ग्रु": 6558,
      "▁नवीकरण": 6559,
      "▁टी-२०": 6560,
      "▁विकसित": 6561,
      "ित्तिकै": 6562,
      "▁घटनास्थल": 6563,
      "▁शौ": 6564,
      "▁हिरास": 6565,
      "▁'त": 6566,
      "▁पाएपछि": 6567,
      "▁बर्दिया": 6568,
      "▁सघ": 6569,
      "▁फुटब": 6570,
      "भारत": 6571,
      "इन्": 6572,
      "▁प्रवद्र्धन": 6573,
      "▁खुशी": 6574,
      "▁बैठकको": 6575,
      "▁शरणार्थी": 6576,
      "पश्चा": 6577,
      "▁नलि": 6578,
      "द्वय": 6579,
      "ीक": 6580,
      "▁अनियमित": 6581,
      "यती": 6582,
      "▁अभिवृद्धि": 6583,
      "▁वेस्ट": 6584,
      "▁कामका": 6585,
      "▁श्रे": 6586,
      "▁क्षतिपूर्ति": 6587,
      "▁बनाई": 6588,
      "▁दीर्घकालीन": 6589,
      "▁नभएकाले": 6590,
      "▁उपाध्या": 6591,
      "▁रसुवा": 6592,
      "▁पर्नेमा": 6593,
      "▁फार्म": 6594,
      "▁वाइ": 6595,
      "▁महानिर्देशक": 6596,
      "▁अफि": 6597,
      "गरीय": 6598,
      "▁रेड": 6599,
      "▁नमिल्": 6600,
      "▁नियन्त्रणका": 6601,
      "मुक्ति": 6602,
      "▁गरिए": 6603,
      "▁तस्बिर": 6604,
      "▁मद्दत": 6605,
      "▁ट्रान्स": 6606,
      "▁दे": 6607,
      "▁संसदको": 6608,
      "▁बुँदे": 6609,
      "भित्रको": 6610,
      "▁आ-आफ": 6611,
      "▁किशोर": 6612,
      "▁समस्याको": 6613,
      "▁बेहो": 6614,
      "▁सुवेदीले": 6615,
      "रौ": 6616,
      "▁मनाङ": 6617,
      "▁नलाग": 6618,
      "लवस्तु": 6619,
      "▁५००": 6620,
      "▁सेवन": 6621,
      "आउट": 6622,
      "द्रिक": 6623,
      "▁मुम्बई": 6624,
      "विपरी": 6625,
      "▁निर्देशिका": 6626,
      "ब्बर": 6627,
      "▁अक्सिजन": 6628,
      "▁बुबा": 6629,
      "दले": 6630,
      "▁किनभने": 6631,
      "न्यजन्तु": 6632,
      "▁मेघ": 6633,
      "▁सधैं": 6634,
      "▁मकै": 6635,
      "▁उत्पादक": 6636,
      "▁प्रतिस्पर्धी": 6637,
      "▁महेश": 6638,
      "▁अभिभावक": 6639,
      "▁हुनेछ": 6640,
      "▁तालि": 6641,
      "▁बस्नेत": 6642,
      "▁ग्रि": 6643,
      "▁नक्सा": 6644,
      "▁राजेश": 6645,
      "सङ्ख्या": 6646,
      "▁विशि": 6647,
      "▁संवेदनशील": 6648,
      "▁काभ्रे": 6649,
      "िरहेका": 6650,
      "▁लगभग": 6651,
      "▁कर्त": 6652,
      "▁कम्पनीलाई": 6653,
      "यू": 6654,
      "▁रास्वपा": 6655,
      "▁अधिकारी,": 6656,
      "▁पाठक": 6657,
      "थे": 6658,
      "ले।": 6659,
      "▁दैलेख": 6660,
      "▁लिटर": 6661,
      "▁(माओवादी": 6662,
      "▁पाउँदा": 6663,
      "▁प्राप्": 6664,
      "▁उचाइ": 6665,
      "ंगी": 6666,
      "▁सम्मानित": 6667,
      "▁कार्ययोजना": 6668,
      "▁एकेडे": 6669,
      "▁भेटमा": 6670,
      "षाध्यक्ष": 6671,
      "▁कृष्णप्रसाद": 6672,
      "▁फराकिलो": 6673,
      "▁जलविद्युत": 6674,
      "दायी": 6675,
      "▁औस": 6676,
      "▁प्रको": 6677,
      "ेलको": 6678,
      "▁डिएसपी": 6679,
      "▁लामाले": 6680,
      "▁पूर्वप्रधानमन्त्री": 6681,
      "लभ": 6682,
      "▁ज्ञापन": 6683,
      "टीका": 6684,
      "▁ढिला": 6685,
      "▁रोजगारीमा": 6686,
      "▁प्राधिकरणको": 6687,
      "▁हुनेको": 6688,
      "▁जनसङ्ख्या": 6689,
      "▁बढुवा": 6690,
      "▁महानगरीय": 6691,
      "प्लेजु": 6692,
      "▁घरमै": 6693,
      "▁हाफमा": 6694,
      "▁गर्न,": 6695,
      "▁२०२१": 6696,
      "शेर": 6697,
      "-७": 6698,
      "▁आक्रोश": 6699,
      "▁शृ": 6700,
      "▁इन्टरनेट": 6701,
      "▁बरु": 6702,
      "▁बिल": 6703,
      "▁कागजात": 6704,
      "▁किसानको": 6705,
      "सुन": 6706,
      "▁पोल": 6707,
      "▁उठाउने": 6708,
      "▁भन्नेमा": 6709,
      "▁कसैको": 6710,
      "▁क्याम्पस": 6711,
      "▁अनुप": 6712,
      "▁कल्या": 6713,
      "हरूबाट": 6714,
      "▁गतिमा": 6715,
      "▁इस्": 6716,
      "▁आयोजनाका": 6717,
      "▁अनुशा": 6718,
      "▁परिषद": 6719,
      "▁बालबालिकालाई": 6720,
      "▁आचार": 6721,
      "वाको": 6722,
      "▁शनिबार।": 6723,
      "ञ्जि": 6724,
      "▁थिएँ।": 6725,
      "▁केशव": 6726,
      "▁लघुवित्त": 6727,
      "▁महासंघले": 6728,
      "▁पुलिस": 6729,
      "▁अधिकारीको": 6730,
      "▁कामलाई": 6731,
      "▁चाहेको": 6732,
      "▁राजकुमार": 6733,
      "▁स्वच्छ": 6734,
      "▁ज्व": 6735,
      "मैले": 6736,
      "▁आनन्द": 6737,
      "शरण": 6738,
      "▁जाहे": 6739,
      "▁बेनी": 6740,
      "धै": 6741,
      "▁पारिश्रमिक": 6742,
      "▁जुनसुकै": 6743,
      "▁राखी": 6744,
      "▁हिस्सा": 6745,
      "▁गाउँका": 6746,
      "▁सचेतक": 6747,
      "▁त्रा": 6748,
      "▁मङ्गलबार": 6749,
      "▁आत्महत्या": 6750,
      "▁पूँजी": 6751,
      "▁डिसे": 6752,
      "▁उखु": 6753,
      "▁नमा": 6754,
      "▁खोटा": 6755,
      "▁हेटौं": 6756,
      "▁पाइप": 6757,
      "▁नकारात्मक": 6758,
      "तीले": 6759,
      "▁पावर": 6760,
      "स्तार": 6761,
      "▁पश्चिमी": 6762,
      "ञ्चल": 6763,
      "▁परेर": 6764,
      "▁पक्का": 6765,
      "▁समुह": 6766,
      "▁वसन्त": 6767,
      "▁निरी": 6768,
      "▁आकार": 6769,
      "▁छौँ": 6770,
      "▁नेपालगन्ज": 6771,
      "▁देशले": 6772,
      "▁छौं": 6773,
      "▁महिनादेखि": 6774,
      "▁पत्रकारि": 6775,
      "▁व्यवस्थापनमा": 6776,
      "▁खडा": 6777,
      "▁समस्यामा": 6778,
      "▁मैत्री": 6779,
      "▁निमित्त": 6780,
      "▁उपवि": 6781,
      "▁लाख,": 6782,
      "▁अक्टो": 6783,
      "▁पटकपटक": 6784,
      "▁भट्टले": 6785,
      "▁महतले": 6786,
      "▁समयको": 6787,
      "▁नेदर": 6788,
      "▁सुरक्षाको": 6789,
      "▁नदीको": 6790,
      "इरहेका": 6791,
      "▁आयोगमा": 6792,
      "▁स्याङ्": 6793,
      "▁दर्शक": 6794,
      "▁बेस": 6795,
      "▁तिर्न": 6796,
      "▁सचिवालयले": 6797,
      "बाहिर": 6798,
      "▁बेलुका": 6799,
      "▁तिर": 6800,
      "अध्यक्ष": 6801,
      "▁अथ": 6802,
      "-६": 6803,
      "▁सांसदले": 6804,
      "ख्रा": 6805,
      "▁जसका": 6806,
      "जल": 6807,
      "▁सिल": 6808,
      "▁जातीय": 6809,
      "▁एनआर": 6810,
      "▁मृतक": 6811,
      "▁ताप्लेजु": 6812,
      "▁निजामती": 6813,
      "▁लगानीमा": 6814,
      "▁लाग्दै": 6815,
      "▁सरसफाइ": 6816,
      "वस्तु": 6817,
      "पन्थ": 6818,
      "▁रेमि": 6819,
      "▁लगिएको": 6820,
      "त्तर": 6821,
      "्विन": 6822,
      "▁बागलुङ": 6823,
      "▁सक्षम": 6824,
      "▁सक्नेछन्।": 6825,
      "▁चरित्र": 6826,
      "▁मनि": 6827,
      "▁बिरुवा": 6828,
      "▁थारु": 6829,
      "्यता": 6830,
      "▁रुकुम": 6831,
      "स्तीमा": 6832,
      "माया": 6833,
      "कस्": 6834,
      "स्तरमा": 6835,
      "▁सुवास": 6836,
      "▁तालमेल": 6837,
      "▁सशक्त": 6838,
      "▁काँ": 6839,
      "▁नदिएको": 6840,
      "▁प्रतिनिधिसभाको": 6841,
      "▁रानी": 6842,
      "▁पाहु": 6843,
      "न्न।": 6844,
      "▁हुनाले": 6845,
      "▁छोराछो": 6846,
      "▁बढाइएको": 6847,
      "▁एपी": 6848,
      "▁मिस": 6849,
      "▁वन्यजन्तु": 6850,
      "्यारो": 6851,
      "▁अच": 6852,
      "भियोग": 6853,
      "▁मेस्": 6854,
      "टेन": 6855,
      "▁कँ": 6856,
      "▁विशिष्ट": 6857,
      "▁खोजि": 6858,
      "वटै": 6859,
      "▁गणना": 6860,
      "▁अनुगम": 6861,
      "▁छापा": 6862,
      "▁जम": 6863,
      "▁इला": 6864,
      "▁स्थानीयको": 6865,
      "▁गिरीले": 6866,
      "▁डल": 6867,
      "▁टेस्ट": 6868,
      "ीका": 6869,
      "▁दिनुभएको": 6870,
      "सम्मत": 6871,
      "▁लाइस": 6872,
      "▁नेपाल-": 6873,
      "▁शौच": 6874,
      "▁सिरहा": 6875,
      "▁गर्नुपर्नेमा": 6876,
      "▁विपरीत": 6877,
      "▁उपराष्ट्रपति": 6878,
      "वर्क": 6879,
      "▁पोलि": 6880,
      "▁प्रयोगकर्ता": 6881,
      "एमई": 6882,
      "▁कार्यालयबाट": 6883,
      "▁सद्": 6884,
      "दायक": 6885,
      "▁ओलीलाई": 6886,
      "▁तिवारी": 6887,
      "▁परिण": 6888,
      "▁मङ्सिर": 6889,
      "▁मतगणना": 6890,
      "▁विपक्ष": 6891,
      "समध्ये": 6892,
      "▁सक्दैन।": 6893,
      "▁बेइ": 6894,
      "▁भूमिकामा": 6895,
      "फिल्": 6896,
      "▁दरबन्दी": 6897,
      "एन।": 6898,
      "किएका": 6899,
      "ञ्चार": 6900,
      "टरमा": 6901,
      "सिस": 6902,
      "▁महानगरले": 6903,
      "▁परिमा": 6904,
      "▁लिभरपुल": 6905,
      "पका": 6906,
      "सूची": 6907,
      "प्रतिको": 6908,
      "किएको": 6909,
      "▁शक्तिशाली": 6910,
      "▁संस्थामा": 6911,
      "▁ट्रे": 6912,
      "िल्ली": 6913,
      "▁तारि": 6914,
      "▁नेपालीले": 6915,
      "▁जीवनमा": 6916,
      "विपरीत": 6917,
      "अधिकार": 6918,
      "▁श्याम": 6919,
      "▁चाहन्छु": 6920,
      "▁बिहानै": 6921,
      "▁कन्स": 6922,
      "मगर": 6923,
      "▁श्रावण": 6924,
      "▁कर्तव्य": 6925,
      "▁लिनुपर्ने": 6926,
      "▁नेताहरुले": 6927,
      "▁कूटनीतिक": 6928,
      "▁भवनमा": 6929,
      "▁मूर्ति": 6930,
      "▁जग्गामा": 6931,
      "▁प्रधा": 6932,
      "▁सम्भावित": 6933,
      "▁लुट": 6934,
      "▁'सं": 6935,
      "▁जग्गाको": 6936,
      "ियन्स": 6937,
      "▁२०२३": 6938,
      "दको": 6939,
      "▁कसले": 6940,
      "▁एपिएफ": 6941,
      "▁घटा": 6942,
      "▁आप्र": 6943,
      "▁प्रशंसा": 6944,
      "▁टेलिभिजन": 6945,
      "▁कविता": 6946,
      "नान्स": 6947,
      "ँदैन": 6948,
      "▁चर्को": 6949,
      "▁हटाउने": 6950,
      "▁बन्दा": 6951,
      "▁कुखु": 6952,
      "▁इजलासले": 6953,
      "▁सृ": 6954,
      "▁कुटपिट": 6955,
      "प्ती": 6956,
      "▁पदार्थको": 6957,
      "▁विश्वकपमा": 6958,
      "▁नेम्वा": 6959,
      "▁छेउ": 6960,
      "▁द्वि": 6961,
      "▁रहि": 6962,
      "▁बनाउँ": 6963,
      "▁अनुमोदन": 6964,
      "हरू,": 6965,
      "शनल": 6966,
      "▁शल्य": 6967,
      "▁नमुना": 6968,
      "▁बाँडफा": 6969,
      "▁विपन्न": 6970,
      "▁थपि": 6971,
      "दलीय": 6972,
      "▁इलाम": 6973,
      "ारीरिक": 6974,
      "▁कुमारी": 6975,
      "▁उनकी": 6976,
      "▁रद्द": 6977,
      "▁बराबरीमा": 6978,
      "▁साझेदार": 6979,
      "▁पला": 6980,
      "▁देखिएपछि": 6981,
      "▁प्रदू": 6982,
      "▁कल्याण": 6983,
      "▁कोरोनाभाइ": 6984,
      "▁सञ्चालनका": 6985,
      "▁अरुण": 6986,
      "र्नर": 6987,
      "▁चाँडै": 6988,
      "▁श्रीमा": 6989,
      "▁यादव,": 6990,
      "सीका": 6991,
      "ग्राम": 6992,
      "ँचा": 6993,
      "लाग्": 6994,
      "ालमा": 6995,
      "▁साविक": 6996,
      "▁शिखर": 6997,
      "▁उपचारमा": 6998,
      "▁अभावमा": 6999,
      "▁भ्रमणका": 7000,
      "काइ": 7001,
      "▁सेप्टे": 7002,
      "▁खुट्टा": 7003,
      "▁पह": 7004,
      "खत": 7005,
      "यौं": 7006,
      "▁अनुकूल": 7007,
      "विना": 7008,
      "▁'सरकार": 7009,
      "▁कपिलवस्तु": 7010,
      "▁राखे।": 7011,
      "फोन": 7012,
      "▁उठाउन": 7013,
      "▁सर्वे": 7014,
      "ैमा": 7015,
      "एसजी": 7016,
      "▁अनुहार": 7017,
      "▁नैतिक": 7018,
      "▁सहुलियत": 7019,
      "्यानल": 7020,
      "▁बित": 7021,
      "▁जनजा": 7022,
      "लिम": 7023,
      "▁बढीको": 7024,
      "▁अर्जेन्": 7025,
      "▁'के": 7026,
      "▁निर्माणाधीन": 7027,
      "ञ्चित": 7028,
      "स्ट्र": 7029,
      "▁उपमे": 7030,
      "▁फोहर": 7031,
      "▁भन्नु": 7032,
      "▁पूरै": 7033,
      "▁सुरक्षाका": 7034,
      "डिओ": 7035,
      "▁कँडेल": 7036,
      "▁बनाउँदा": 7037,
      "▁पद्ध": 7038,
      "्ने,": 7039,
      "▁समृद्धिको": 7040,
      "▁शारीरिक": 7041,
      "▁कार्की,": 7042,
      "▁मनोज": 7043,
      "▁जनताका": 7044,
      "▁ज्ञवालीले": 7045,
      "▁शुद्ध": 7046,
      "ेषण": 7047,
      "िरहेको": 7048,
      "▁सागर": 7049,
      "▁फर्म": 7050,
      "माल": 7051,
      "▁बर्खा": 7052,
      "▁कुर": 7053,
      "▁मिलाउन": 7054,
      "▁पर्छ": 7055,
      "▁कन्ट": 7056,
      "▁मधु": 7057,
      "▁तीमध्ये": 7058,
      "भित्रका": 7059,
      "शै": 7060,
      "▁ओम": 7061,
      "▁उमेरमा": 7062,
      "▁'ग": 7063,
      "▁माल्": 7064,
      "▁वीरगञ्ज": 7065,
      "▁उत्खन": 7066,
      "▁उद्योग,": 7067,
      "ाउँछ।": 7068,
      "▁छैट": 7069,
      "▁नगरि": 7070,
      "▁शरीर": 7071,
      "▁बजारको": 7072,
      "▁लहर": 7073,
      "▁कोषाध्यक्ष": 7074,
      "▁भुटान": 7075,
      "भरी": 7076,
      "▁कटौती": 7077,
      "▁झनै": 7078,
      "ब्या": 7079,
      "नात्मक": 7080,
      "▁हुन्थ्यो।": 7081,
      "वास्ता": 7082,
      "मीका": 7083,
      "▁मर्या": 7084,
      "▁विक्र": 7085,
      "▁फौ": 7086,
      "▁लगत्तै": 7087,
      "▁रेडियो": 7088,
      "प,": 7089,
      "▁उत्तरी": 7090,
      "▁रिक्त": 7091,
      "▁अशोक": 7092,
      "▁उपनिर्वाच": 7093,
      "झो": 7094,
      "▁दिदी": 7095,
      "▁आश्विन": 7096,
      "▁समुदायका": 7097,
      "▁छु,": 7098,
      "▁पुग्यो।": 7099,
      "▁उम्मेदवारको": 7100,
      "जाको": 7101,
      "▁मधेसी": 7102,
      "वत्": 7103,
      "बन्द": 7104,
      "▁प्रकट": 7105,
      "▁पुग्दा": 7106,
      "▁परिसूचक": 7107,
      "▁चीनमा": 7108,
      "▁परिक": 7109,
      "▁सुनिल": 7110,
      "एसँगै": 7111,
      "▁थ्री": 7112,
      "▁गर्नुपर्": 7113,
      "तन": 7114,
      "▁मौद्रिक": 7115,
      "▁निवेद": 7116,
      "माथिको": 7117,
      "▁उका": 7118,
      "▁लगानीको": 7119,
      "▁घरबाट": 7120,
      "▁झि": 7121,
      "▁दोल": 7122,
      "▁महारा": 7123,
      "वित": 7124,
      "ण्डर": 7125,
      "▁नेकपाका": 7126,
      "▁अर्जेन्टि": 7127,
      "▁प्रती": 7128,
      "सक्नु": 7129,
      "्नुपर्ने": 7130,
      "▁छौँ,": 7131,
      "▁सहकार्यमा": 7132,
      "थोकी": 7133,
      "▁थपिएको": 7134,
      "▁गभ": 7135,
      "▁उच्चस्तरीय": 7136,
      "▁निवासी": 7137,
      "▁प्राध्यापक": 7138,
      "कीय": 7139,
      "बाजी": 7140,
      "▁ढुङ्गा": 7141,
      "▁न्यौपानेले": 7142,
      "▁मनाउन": 7143,
      "ण्डित": 7144,
      "▁परिणत": 7145,
      "▁दोब्बर": 7146,
      "▁राष्ट्रपतिले": 7147,
      "कालिन": 7148,
      "▁गइरहेको": 7149,
      "▁लागुऔषध": 7150,
      "▁नमू": 7151,
      "पल्ट": 7152,
      "▁विक्रम": 7153,
      "▁अनौ": 7154,
      "▁केवल": 7155,
      "ब्लिक": 7156,
      "▁धनी": 7157,
      "▁घाँ": 7158,
      "पालन": 7159,
      "▁प्रदर्शनमा": 7160,
      "▁पारदर्श": 7161,
      "▁प्रशासनिक": 7162,
      "▁रोमा": 7163,
      "▁शौचालय": 7164,
      "सिना": 7165,
      "▁गुट": 7166,
      "▁लेखिएको": 7167,
      "▁फाल्गुन": 7168,
      "▁रामबहादुर": 7169,
      "▁विमानस्थलको": 7170,
      "▁घोषित": 7171,
      "▁पञ्चा": 7172,
      "▁घटेर": 7173,
      "▁सडकखण्ड": 7174,
      "▁(के": 7175,
      "▁मोरङ": 7176,
      "्राइ": 7177,
      "▁व्याख्या": 7178,
      "▁एकीकरण": 7179,
      "▁शल्यक्रिया": 7180,
      "▁झड": 7181,
      "▁बन्यो।": 7182,
      "▁भेट्न": 7183,
      "▁२०१७": 7184,
      "▁बिस्तार": 7185,
      "▁कुरालाई": 7186,
      "▁हिन्दु": 7187,
      "▁सक्दैन": 7188,
      "▁अर्थतन्त्रमा": 7189,
      "▁दाङ": 7190,
      "▁पूर्वानु": 7191,
      "हरि": 7192,
      "▁आत्मनिर्भर": 7193,
      "धर": 7194,
      "▁पक्षको": 7195,
      "वृत्ति": 7196,
      "▁आतंक": 7197,
      "▁०२": 7198,
      "▁सुन्तला": 7199,
      "▁सत्र": 7200,
      "▁अमर": 7201,
      "इँ": 7202,
      "▁पुगेपछि": 7203,
      "▁उत्तिकै": 7204,
      "कासहित": 7205,
      "▁चामल": 7206,
      "▁सेटमा": 7207,
      "ैया": 7208,
      "▁इम": 7209,
      "▁त्यहाँको": 7210,
      "▁छैन।'": 7211,
      "▁महँगो": 7212,
      "▁बढे": 7213,
      "▁खटिएका": 7214,
      "▁निकायको": 7215,
      "सी)": 7216,
      "ट्टी": 7217,
      "▁चित्त": 7218,
      "हिने": 7219,
      "जगार": 7220,
      "टिभ": 7221,
      "▁प्रायः": 7222,
      "▁प्रचारप्रसार": 7223,
      "▁जागिर": 7224,
      "▁नमिल्ने": 7225,
      "▁गोदा": 7226,
      "काजी": 7227,
      "म्बार": 7228,
      "▁समाजको": 7229,
      "▁सहितको": 7230,
      "डा,": 7231,
      "ड,": 7232,
      "▁होटलमा": 7233,
      "▁र,": 7234,
      "▁टिमले": 7235,
      "▁तातो": 7236,
      "▁महानिरीक्षक": 7237,
      "▁भर्खर": 7238,
      "▁(एमाले)": 7239,
      "▁विज्ञापन": 7240,
      "▁चाहिने": 7241,
      "▁अस्थ": 7242,
      "▁सुत्के": 7243,
      "ङ्ग्र": 7244,
      "खेती": 7245,
      "▁लमजु": 7246,
      "▁प्रतिवद्धता": 7247,
      "▁गरेमा": 7248,
      "▁जसमध्ये": 7249,
      "▁चाहने": 7250,
      "▁पेनाल्टी": 7251,
      "▁डिस्": 7252,
      "▁एक्लै": 7253,
      "डका": 7254,
      "▁नवीन": 7255,
      "▁सिरिज": 7256,
      "▁विद्यादेवी": 7257,
      "▁दिएकी": 7258,
      "▁पहिरोले": 7259,
      "▁अगाडी": 7260,
      "▁विश्वमा": 7261,
      "▁उद्योगमा": 7262,
      "▁हल्ला": 7263,
      "▁सेल्": 7264,
      "▁दूरी": 7265,
      "▁दोलखा": 7266,
      "▁धनकु": 7267,
      "▁समाजवाद": 7268,
      "▁विकेटले": 7269,
      "▁बुढाथोकी": 7270,
      "▁जानुपर्ने": 7271,
      "वधि": 7272,
      "▁धितोपत्र": 7273,
      "ंदै": 7274,
      "स्तर": 7275,
      "▁भविष्यमा": 7276,
      "▁दिवसको": 7277,
      "▁स्रोतका": 7278,
      "▁थालि": 7279,
      "▁जनतामा": 7280,
      "▁१-०": 7281,
      "▁विप्लव": 7282,
      "ल्नु": 7283,
      "म्बू": 7284,
      "▁रनले": 7285,
      "ण्ठ": 7286,
      "▁बालुवाटारमा": 7287,
      "▁स्मृति": 7288,
      "▁मिले": 7289,
      "▁पैदल": 7290,
      "▁पारी": 7291,
      "▁निक्षेप": 7292,
      "-म": 7293,
      "▁'यस": 7294,
      "▁जन्मि": 7295,
      "▁वर": 7296,
      "▁बलर": 7297,
      "ङ्कन": 7298,
      "▁अपि": 7299,
      "▁गुज": 7300,
      "▁संस्कृति,": 7301,
      "▁नोभे": 7302,
      "▁गतेको": 7303,
      "डले": 7304,
      "▁जोडिएका": 7305,
      "▁आचारसं": 7306,
      "▁कुकुर": 7307,
      "▁भएकोमा": 7308,
      "▁पठन": 7309,
      "▁एकपटक": 7310,
      "▁मल्लले": 7311,
      "▁सम्हाल": 7312,
      "▁लगेर": 7313,
      "▁नेताको": 7314,
      "▁ठीक": 7315,
      "▁भद्र": 7316,
      "▁यथार्थ": 7317,
      "▁चाडपर्व": 7318,
      "▁बलिउड": 7319,
      "स्रोत": 7320,
      "▁होला।": 7321,
      "▁कार्यसमिति": 7322,
      "▁सम्झौतामा": 7323,
      "▁राजपा": 7324,
      "▁अखिल": 7325,
      "र्पोर": 7326,
      "वालले": 7327,
      "▁तै": 7328,
      "▁मनोर": 7329,
      "▁हुम्": 7330,
      "▁बृह": 7331,
      "रालो": 7332,
      "▁म्याच": 7333,
      "▁करा": 7334,
      "ह्र": 7335,
      "▁हेम": 7336,
      "▁अदालतका": 7337,
      "▁नियमन": 7338,
      "▁तामाङ,": 7339,
      "▁सकेन": 7340,
      "▁सहमत": 7341,
      "अल": 7342,
      "▁सद्भाव": 7343,
      "▁सधैँ": 7344,
      "दिव": 7345,
      "▁पार्दै": 7346,
      "▁विन्दु": 7347,
      "▁राष्ट्रको": 7348,
      "▁रत्न": 7349,
      "वारण": 7350,
      "▁सीता": 7351,
      "▁पुरानै": 7352,
      "▁कमजोरी": 7353,
      "▁यसो": 7354,
      "▁खाँ": 7355,
      "▁तीनवटा": 7356,
      "ोषण": 7357,
      "▁पूर्वानुमान": 7358,
      "पार्": 7359,
      "▁खुल्ला": 7360,
      "▁ध्व": 7361,
      "▁डिग्री": 7362,
      "▁यि": 7363,
      "▁अवतरण": 7364,
      "▁त्यहाँका": 7365,
      "▁नराख": 7366,
      "▁ठग": 7367,
      "▁परिवर्तनको": 7368,
      "▁देखिन": 7369,
      "दित": 7370,
      "▁प्याले": 7371,
      "▁शिला": 7372,
      "▁गीतको": 7373,
      "▁नसकेपछि": 7374,
      "▁व्यापारिक": 7375,
      "▁प्रभु": 7376,
      "्योति": 7377,
      "▁सम्पर्कमा": 7378,
      "▁मूल्यांकन": 7379,
      "▁१-१": 7380,
      "सीआर": 7381,
      "▁सोलु": 7382,
      "भौ": 7383,
      "▁लिई": 7384,
      "बहि": 7385,
      "▁गोल्": 7386,
      "▁सतह": 7387,
      "चेस्टर": 7388,
      "▁बुधवार": 7389,
      "▁'ए'": 7390,
      "▁नवराज": 7391,
      "▁सदु": 7392,
      "▁महिनाभित्र": 7393,
      "▁पेरि": 7394,
      "▁रजत": 7395,
      "▁विष्टले": 7396,
      "▁संसद्को": 7397,
      "बिच": 7398,
      "▁नोट": 7399,
      "▁माझ": 7400,
      "▁लक्ष्मण": 7401,
      "▁देशभरका": 7402,
      "▁उपविजेता": 7403,
      "▁रोका": 7404,
      "▁रोल्पा": 7405,
      "▁गठबन्धनमा": 7406,
      "एनए": 7407,
      "▁सबस्ट": 7408,
      "ृत्य": 7409,
      "▁आवको": 7410,
      "▁एच": 7411,
      "▁'हाम्रो": 7412,
      "▁पारिएको": 7413,
      "▁दलहरू": 7414,
      "▁प्रत्या": 7415,
      "▁महाकाली": 7416,
      "▁०१": 7417,
      "▁त्र": 7418,
      "▁'न": 7419,
      "चाह": 7420,
      "िको": 7421,
      "▁उल्लं": 7422,
      "▁फर्कने": 7423,
      "दत्त": 7424,
      "सेन": 7425,
      "▁सवाल": 7426,
      "▁मुटु": 7427,
      "▁किस्ता": 7428,
      "▁ठप्प": 7429,
      "गृह": 7430,
      "▁पत्नी": 7431,
      "▁अस्थिर": 7432,
      "माको": 7433,
      "▁एपीएफ": 7434,
      "दिभ": 7435,
      "गोलिक": 7436,
      "▁आयो।": 7437,
      "▁'द": 7438,
      "▁पेशा": 7439,
      "▁लेखेको": 7440,
      "राति": 7441,
      "▁देखाउन": 7442,
      "▁मदिरा": 7443,
      "▁रोजगारीका": 7444,
      "वृ": 7445,
      "▁उठेको": 7446,
      "▁सुधारका": 7447,
      "▁खातामा": 7448,
      "▁क्य": 7449,
      "▁योसँगै": 7450,
      "▁छात्रा": 7451,
      "▁पक्षका": 7452,
      "▁वस्तुको": 7453,
      "▁चेल्": 7454,
      "▁शर्मा,": 7455,
      "▁निरीक्षण": 7456,
      "▁नेपालीलाई": 7457,
      "▁अनुसार,": 7458,
      "▁सदुपयोग": 7459,
      "▁जोन": 7460,
      "▁बालबालिकाको": 7461,
      "▁क्रियाकलाप": 7462,
      "▁उपाध्यक्षमा": 7463,
      "▁घन": 7464,
      "▁खालका": 7465,
      "ाचार": 7466,
      "▁हिरासतमा": 7467,
      "▁मुआ": 7468,
      "▁कल्पना": 7469,
      "ौलाले": 7470,
      "फर्म": 7471,
      "▁गराउ": 7472,
      "न्छन्": 7473,
      "पन्थी": 7474,
      "▁उपहार": 7475,
      "▁संक्रमणको": 7476,
      "सरकारी": 7477,
      "विरूद्ध": 7478,
      "▁समाजका": 7479,
      "▁स्रोतको": 7480,
      "▁भिडियोमा": 7481,
      "▁प्रधाना": 7482,
      "हरुबाट": 7483,
      "▁खोल्ने": 7484,
      "▁प्रवर्द्धन": 7485,
      "बाटो": 7486,
      "खबर": 7487,
      "▁धम्की": 7488,
      "्याएर": 7489,
      "▁विरोधमा": 7490,
      "▁खिच": 7491,
      "▁उल्लेख्य": 7492,
      "▁संविधानमा": 7493,
      "▁सर्वेक्षण": 7494,
      "▁गराएर": 7495,
      "▁छ\",": 7496,
      "▁महाशाखाका": 7497,
      "▁कोठामा": 7498,
      "▁दलीय": 7499,
      "▁ष": 7500,
      "▁डोल्पा": 7501,
      "▁अनुसन्धानका": 7502,
      "▁सभ": 7503,
      "▁धनकुटा": 7504,
      "▁बाख्रा": 7505,
      "▁नगरप्रमुख": 7506,
      "▁ट्रक": 7507,
      "▁ईश्वर": 7508,
      "▁खोल्न": 7509,
      "▁आन्दोलनको": 7510,
      "कता": 7511,
      "▁कर्पोर": 7512,
      "▁निवारण": 7513,
      "▁लाग्दा": 7514,
      "हाम्रो": 7515,
      "रहित": 7516,
      "ज,": 7517,
      "▁रावल": 7518,
      "▁'मैले": 7519,
      "▁राप्ती": 7520,
      "▁संघीयता": 7521,
      "▁भेटिएका": 7522,
      "▁निर्देशनालय": 7523,
      "थ्य": 7524,
      "▁आजदेखि": 7525,
      "▁बुझाउन": 7526,
      "▁बसपार्क": 7527,
      "▁छाप": 7528,
      "▁महामारीका": 7529,
      "▁ग्राम": 7530,
      "अप": 7531,
      "▁अड्": 7532,
      "बान": 7533,
      "नाली": 7534,
      "▁खरेल": 7535,
      "ब्ब": 7536,
      "▁गिरी": 7537,
      "ङ्ख": 7538,
      "▁सम्पादन": 7539,
      "▁परराष्ट्रमन्त्री": 7540,
      "▁आवमा": 7541,
      "▁इले": 7542,
      "▁समावेशी": 7543,
      "ड्य": 7544,
      "लुङ": 7545,
      "▁निषेध": 7546,
      "▁जनस्वास्थ्य": 7547,
      "▁त?": 7548,
      "▁उद्यम": 7549,
      "▁ओभरको": 7550,
      "▁कुराको": 7551,
      "▁मेलम्ची": 7552,
      "▁रोगको": 7553,
      "तर्फी": 7554,
      "▁पोखराको": 7555,
      "▁बनेर": 7556,
      "▁कोषमा": 7557,
      "▁दान": 7558,
      "▁काला": 7559,
      "▁करोडको": 7560,
      "▁सुदृढ": 7561,
      "▁प्रणालीको": 7562,
      "▁सुनार": 7563,
      "▁फैला": 7564,
      "▁अस्ति": 7565,
      "▁राना": 7566,
      "▁दाउ": 7567,
      "▁स्वतन्त्रता": 7568,
      "मन्त्र": 7569,
      "▁हिन्द": 7570,
      "▁उत्पादनको": 7571,
      "▁विद्यमान": 7572,
      "बिक": 7573,
      "▁श्रद्धा": 7574,
      "▁सुरेश": 7575,
      "▁गिरि": 7576,
      "▁निरु": 7577,
      "▁खानी": 7578,
      "डेल्": 7579,
      "▁करी": 7580,
      "▁दिनपछि": 7581,
      "▁डिफ": 7582,
      "▁'को": 7583,
      "▁लिम्बू": 7584,
      "▁बिच": 7585,
      "▁जनकपुरधा": 7586,
      "▁पाउनेछन्।": 7587,
      "▁बताए": 7588,
      "▁देखेर": 7589,
      "▁मार्क": 7590,
      "▁राख्नु": 7591,
      "▁राजधानीमा": 7592,
      "शेष": 7593,
      "▁लिँदै": 7594,
      "म्बरमा": 7595,
      "▁राज्यका": 7596,
      "▁बलिङ": 7597,
      "▁लगाउँदै": 7598,
      "▁गिरा": 7599,
      "▁गरेपनि": 7600,
      "▁स्को": 7601,
      "▁सरस्व": 7602,
      "▁स्थानको": 7603,
      "▁फिट": 7604,
      "▁आउँदो": 7605,
      "▁एकदिव": 7606,
      "▁स्वि": 7607,
      "▁विश्वको": 7608,
      "▁शिविर": 7609,
      ".०": 7610,
      "पर्छ।": 7611,
      "▁गुमाएको": 7612,
      "▁२०१६": 7613,
      "ौता": 7614,
      "▁महामारीको": 7615,
      "▁पेसा": 7616,
      "▁सहिद": 7617,
      "▁धरौ": 7618,
      "▁व्यवस्थापनका": 7619,
      "▁स्टक": 7620,
      "▁कैदी": 7621,
      "वाहक": 7622,
      "▁ढिलो": 7623,
      "▁स्वस्थ": 7624,
      "▁आश्वास": 7625,
      "▁नराम": 7626,
      "▁किताब": 7627,
      "▁रङ्ग": 7628,
      "▁रजि": 7629,
      "आत": 7630,
      "▁यसपाल": 7631,
      "▁०३": 7632,
      "▁हेलि": 7633,
      "कुरा": 7634,
      "▁स्वास्थ्यमा": 7635,
      "▁नायव": 7636,
      "▁बङ्गलादेश": 7637,
      "कू": 7638,
      "नबाट": 7639,
      "▁लगायतको": 7640,
      "▁हुने,": 7641,
      "▁राज्यमन्त्री": 7642,
      "▁ताला": 7643,
      "▁तस्करी": 7644,
      "▁पक्षलाई": 7645,
      "ण्डमा": 7646,
      "▁उत्साहित": 7647,
      "▁कार्यपालिका": 7648,
      "▁जिता": 7649,
      "▁पौडेलको": 7650,
      "▁बोल्न": 7651,
      "▁बोकेको": 7652,
      "ड्दा": 7653,
      "▁गुणा": 7654,
      "▁परिमार्जन": 7655,
      "▁अन्यत्र": 7656,
      "▁त्याग": 7657,
      "▁आवतजा": 7658,
      "लट": 7659,
      "▁ली": 7660,
      "▁०४": 7661,
      "▁गायिका": 7662,
      "▁त्यसबेला": 7663,
      "▁बढेपछि": 7664,
      "▁२,": 7665,
      "▁खुकु": 7666,
      "▁बचाउन": 7667,
      "▁गरियो": 7668,
      "▁कमला": 7669,
      "▁शीत": 7670,
      "▁किन्न": 7671,
      "▁आयुक्त": 7672,
      "ाराम": 7673,
      "▁कडाइ": 7674,
      "▁अपनाउन": 7675,
      "सम्यान": 7676,
      "▁हप्": 7677,
      "▁उक्": 7678,
      "▁मुद्दाको": 7679,
      "▁भौगोलिक": 7680,
      "नेश्वर": 7681,
      "▁बुवा": 7682,
      "स्,": 7683,
      "▁गठबन्धनले": 7684,
      "▁अभियोगमा": 7685,
      "८१": 7686,
      "▁व्यहो": 7687,
      "▁गर्भ": 7688,
      "जस्ती": 7689,
      "▁कीर्तिमान": 7690,
      "▁सुशील": 7691,
      "ारीले": 7692,
      "योर्क": 7693,
      "▁त्यसरी": 7694,
      "वमा": 7695,
      "▁कच्चा": 7696,
      "▁भोग्": 7697,
      "▁राहदानी": 7698,
      "वासीले": 7699,
      "▁आउँछ।": 7700,
      "▁चलाएको": 7701,
      "▁म्युजिक": 7702,
      "▁जोड्न": 7703,
      "स्कृत": 7704,
      "▁बत्ती": 7705,
      "लेखा": 7706,
      "निकी": 7707,
      "पार": 7708,
      "▁परीक्षणका": 7709,
      "▁केभी": 7710,
      "▁जाहेरी": 7711,
      "▁दार्चु": 7712,
      "▁आपसी": 7713,
      "▁साथै,": 7714,
      "▁चरा": 7715,
      "▁झो": 7716,
      "▁सिंगा": 7717,
      "▁विदेशमन्त्री": 7718,
      "▁लाइसेन्स": 7719,
      "▁बीउ": 7720,
      "▁'भ": 7721,
      "वरको": 7722,
      "▁जीत": 7723,
      "▁दसैं": 7724,
      "▁धेरैले": 7725,
      "क्ष्मी": 7726,
      "रथ": 7727,
      "लता": 7728,
      "▁काठमाडौंका": 7729,
      "▁प्रतिशत,": 7730,
      "▁युरोपेली": 7731,
      "▁उहाँलाई": 7732,
      "▁काठमाडौं,": 7733,
      "▁झरेको": 7734,
      "धनको": 7735,
      "▁अतिक्रमण": 7736,
      "▁मुआब्जा": 7737,
      "रहे": 7738,
      "▁बेवास्ता": 7739,
      "▁बैंकमा": 7740,
      "▁अनाव": 7741,
      "▁गेट": 7742,
      "▁बन्दी": 7743,
      "▁प्रस्थान": 7744,
      "याे।": 7745,
      "▁थिएन": 7746,
      "▁सुकु": 7747,
      "▁क्वारेन्टाइ": 7748,
      "गाह": 7749,
      "▁स्तरोन्नति": 7750,
      "▁पाउनु": 7751,
      "▁राशि": 7752,
      "सीलाई": 7753,
      "▁पाउँदै": 7754,
      "¥यो।": 7755,
      "▁आफैंले": 7756,
      "▁''": 7757,
      "▁प्रस्तावित": 7758,
      "मिता": 7759,
      "▁सफाइ": 7760,
      "स्टा": 7761,
      "विक्रम": 7762,
      "▁सतर्कता": 7763,
      "▁निस्कि": 7764,
      "▁ट्वी": 7765,
      "पाइँ": 7766,
      "▁प्रयोगमा": 7767,
      "▁जुलाई": 7768,
      "▁रहे।": 7769,
      "▁पाँचथ": 7770,
      "बिना": 7771,
      "▁अपहरण": 7772,
      "रात": 7773,
      "▁झर": 7774,
      "▁सन्धि": 7775,
      "▁नसकेका": 7776,
      "▁उन्न": 7777,
      "▁नमूना": 7778,
      "▁तारिख": 7779,
      "▁शुक्रवार": 7780,
      "▁संकल": 7781,
      "▁भानु": 7782,
      "डेल्धु": 7783,
      "▁भरमा": 7784,
      "कन": 7785,
      "▁तत्कालै": 7786,
      "▁दसैँ": 7787,
      "▁डेब": 7788,
      "हरु,": 7789,
      "▁सर्त": 7790,
      "▁हाराहारीमा": 7791,
      "▁वृत्त": 7792,
      "▁शतक": 7793,
      "▁रासस": 7794,
      "▁चिनी": 7795,
      "▁रुस": 7796,
      "▁गोलको": 7797,
      "▁अधिकारको": 7798,
      "▁नसकिएको": 7799,
      "▁छ'": 7800,
      "लेन्द्र": 7801,
      "▁आदान": 7802,
      "जीको": 7803,
      "▁चलचित्रमा": 7804,
      "▁खोज्न": 7805,
      "खे": 7806,
      "▁राखिएका": 7807,
      "ेन्डर": 7808,
      "▁गंगा": 7809,
      "▁प्रदूषण": 7810,
      "▁उप्र": 7811,
      "▁गगन": 7812,
      "लेट": 7813,
      "▁रोक्ने": 7814,
      "▁ज्वरो": 7815,
      "▁पण्डित": 7816,
      "▁त्यसबाट": 7817,
      "▁लेखक": 7818,
      "▁रोय": 7819,
      "▁समितिलाई": 7820,
      "▁एनसेल": 7821,
      "▁सम्पाद": 7822,
      "▁बू": 7823,
      "फ्ले": 7824,
      "ढुंगा": 7825,
      "▁अन्यो": 7826,
      "▁\"अ": 7827,
      "▁असन्तुष्ट": 7828,
      "▁फोरम": 7829,
      "▁गर्दछन्।": 7830,
      "▁भाडामा": 7831,
      "▁कार्यान्वयनका": 7832,
      "▁उन्मुक्ति": 7833,
      "▁विरुद्धको": 7834,
      "▁व्र": 7835,
      "▁औसत": 7836,
      "चाँ": 7837,
      "▁गैरका": 7838,
      "▁मुलुकलाई": 7839,
      "▁प्रतिभा": 7840,
      "▁कुवेत": 7841,
      "पेन्द्र": 7842,
      "▁पत्राचार": 7843,
      "▁कानूनी": 7844,
      "ब्रु": 7845,
      "▁चितवनको": 7846,
      "▁रावलले": 7847,
      "▁सदस्यता": 7848,
      "▁बिरामीलाई": 7849,
      "▁प्रस्तुति": 7850,
      "▁कौ": 7851,
      "हक": 7852,
      "▁उस्तै": 7853,
      "▁विरोधी": 7854,
      "अगा": 7855,
      "▁रेग्मीले": 7856,
      "▁राजन": 7857,
      "कस्मिक": 7858,
      "▁निष्पक्ष": 7859,
      "▁विदेशबाट": 7860,
      "▁पोर्चु": 7861,
      "▁हद": 7862,
      "▁किसिमका": 7863,
      "▁देखियो।": 7864,
      "▁रायमा": 7865,
      "▁परिसरमा": 7866,
      "▁भन्छन्।": 7867,
      "वियु": 7868,
      "्युब": 7869,
      "▁गरेकोमा": 7870,
      "ेसि": 7871,
      "▁शिक्षाको": 7872,
      "▁सिस्ट": 7873,
      "▁शासक": 7874,
      "▁एजे": 7875,
      "इलो": 7876,
      "▁अनावश्यक": 7877,
      "▁शिशु": 7878,
      "▁डडेल्धु": 7879,
      "▁र?": 7880,
      "▁कार्यसम्": 7881,
      "▁क्याच": 7882,
      "▁विभागीय": 7883,
      "टरफाइ": 7884,
      "▁पृष्ठ": 7885,
      "▁च्याम्पियन्स": 7886,
      "▁थाले।": 7887,
      "िकार": 7888,
      "▁भुसालले": 7889,
      "▁कागज": 7890,
      "▁तिमिल्": 7891,
      "ेलमा": 7892,
      "▁युनियन": 7893,
      "▁बसाइ": 7894,
      "▁चर्चामा": 7895,
      "िता": 7896,
      "▁नृत्य": 7897,
      "स्टिक": 7898,
      "▁ताइ": 7899,
      "▁निकाल्न": 7900,
      "▁लागतमा": 7901,
      "▁बजेतिर": 7902,
      "▁२-१": 7903,
      "▁समाजवादीका": 7904,
      "▁गुमाएर": 7905,
      "▁सेमिफाइनल": 7906,
      "▁सकिएपछि": 7907,
      "▁पदका": 7908,
      "न्दो": 7909,
      "▁बाग्": 7910,
      "▁भारतसँग": 7911,
      "▁दिनका": 7912,
      "▁प्रतिशतभन्दा": 7913,
      "▁कायमै": 7914,
      "ट्रिक": 7915,
      "छिन्,": 7916,
      "▁अथवा": 7917,
      "▁आकां": 7918,
      "तालिका": 7919,
      "▁दुबई": 7920,
      "▁डिजाइन": 7921,
      "सिद्ध": 7922,
      "▁विकास,": 7923,
      "▁थपिएका": 7924,
      "कुलपति": 7925,
      "▁माओवादीका": 7926,
      "▁आकस्मिक": 7927,
      "▁क्षेत्रले": 7928,
      "▁भन्नेबारे": 7929,
      "▁बालुवाटार": 7930,
      "▁धमा": 7931,
      "▁ओमान": 7932,
      "▁पाँचौं": 7933,
      "▁बास": 7934,
      "▁परिचयपत्र": 7935,
      "▁हुँ": 7936,
      "▁रहेकी": 7937,
      "▁०५": 7938,
      "▁डाँडा": 7939,
      "▁न्युजि": 7940,
      "▁सहरमा": 7941,
      "▁बीबी": 7942,
      "ेन्टि": 7943,
      "▁यूएई": 7944,
      "▁लाखको": 7945,
      "▁पुँजीगत": 7946,
      "▁मसान्तसम्म": 7947,
      "▁ब्याट्": 7948,
      "▁भाषामा": 7949,
      "ाउँमा": 7950,
      "▁भएकै": 7951,
      "ारोपण": 7952,
      "▁उद्योगको": 7953,
      "▁इन्चार्ज": 7954,
      "लम": 7955,
      "्यवहार": 7956,
      "▁अग्नि": 7957,
      "▁उपसभापति": 7958,
      "▁नेत्र": 7959,
      "▁स्वाब": 7960,
      "▁व्यवसायीको": 7961,
      "▁रायमाझ": 7962,
      "▁विधेयकमा": 7963,
      "श्री": 7964,
      "▁२०२४": 7965,
      "▁सहजै": 7966,
      "▁फागु": 7967,
      "▁धेरैजसो": 7968,
      "धाई": 7969,
      "▁आफै": 7970,
      "▁बझा": 7971,
      "ौं।'": 7972,
      "▁सिलि": 7973,
      "छौँ।": 7974,
      "▁टर्की": 7975,
      "▁जोडेको": 7976,
      "▁प्रयोजन": 7977,
      "दमा": 7978,
      "▁माल्दिभ": 7979,
      "▁पार्किङ": 7980,
      "▁मानिसलाई": 7981,
      "केश": 7982,
      "▁निकास": 7983,
      "▁रोजगारीको": 7984,
      "▁(२": 7985,
      "याको": 7986,
      "▁समर्थक": 7987,
      "▁पाए।": 7988,
      "रोग": 7989,
      "▁न्यायिक": 7990,
      "स्थापन": 7991,
      "▁विकेटको": 7992,
      "▁फर्किने": 7993,
      "▁विद्यालयले": 7994,
      "▁हो',": 7995,
      "▁बोलाइएको": 7996,
      "▁म्याने": 7997,
      "▁एकताको": 7998,
      "▁रवी": 7999,
      "▁रंगशालामा": 8000,
      "▁बिष": 8001,
      "▁आक्रमणमा": 8002,
      "लिस": 8003,
      "▁नुवाकोट": 8004,
      "▁तिमी": 8005,
      "ला।": 8006,
      "▁घुस": 8007,
      "▁प्रतिद्व": 8008,
      "▁कोरोनाका": 8009,
      "▁रचना": 8010,
      "▁हुनुपर्छ": 8011,
      "बुल": 8012,
      "▁ललितपुरको": 8013,
      "▁कठि": 8014,
      "▁आश्वासन": 8015,
      "▁अनुसन्धानमा": 8016,
      "▁पारिवार": 8017,
      "▁पठनपाठ": 8018,
      "▁मापन": 8019,
      "नजर": 8020,
      "ेसी": 8021,
      "▁बेरो": 8022,
      "सायी": 8023,
      "फु": 8024,
      "▁अविजित": 8025,
      "▁पट": 8026,
      "▁छठ": 8027,
      "▁खेल्नेछ।": 8028,
      "▁हिमालयन": 8029,
      "▁दशरथ": 8030,
      "केका": 8031,
      "▁अब्": 8032,
      "▁अध्ययनरत": 8033,
      "▁विवादमा": 8034,
      "▁ग्य": 8035,
      "▁त्यहाँबाट": 8036,
      "डब्": 8037,
      "जनी": 8038,
      "▁सयभन्दा": 8039,
      "▁पदमार्ग": 8040,
      "▁महिनासम्म": 8041,
      "▁प्रदर्शनी": 8042,
      "▁सेन्ट": 8043,
      "▁जानकार": 8044,
      "वर्तमान": 8045,
      "▁उठाएको": 8046,
      "▁निकायमा": 8047,
      "▁मानिसले": 8048,
      "▁अभियुक्त": 8049,
      "▁स्तरमा": 8050,
      "▁इतिहासमा": 8051,
      "क्रामक": 8052,
      "▁वक्त": 8053,
      "▁फस": 8054,
      "▁बेलायती": 8055,
      "पछिको": 8056,
      "वर्ती": 8057,
      "▁सुब्बा": 8058,
      "▁प्रधानाध्यापक": 8059,
      "▁झाले": 8060,
      "▁भनेपछि": 8061,
      "ललाई": 8062,
      "▁उद्यमी": 8063,
      "▁नम्बरमा": 8064,
      "▁व्यक्तित्व": 8065,
      "▁यसैगरी,": 8066,
      "▁ठोस": 8067,
      "▁इटाली": 8068,
      "▁चरम": 8069,
      "▁विशेषगरी": 8070,
      "▁ग्राहकले": 8071,
      "▁जसलाई": 8072,
      "काउ": 8073,
      "▁हेड": 8074,
      "▁कमिटीको": 8075,
      "▁हेटौंडा": 8076,
      "स्योर": 8077,
      "▁माग्": 8078,
      "▁देखाएर": 8079,
      "▁क्लि": 8080,
      "▁बन्ध": 8081,
      "नस": 8082,
      "▁छायांकन": 8083,
      "▁गहिरो": 8084,
      "▁मानिएको": 8085,
      "▁राती": 8086,
      "▁एकद": 8087,
      "▁नेटवर्क": 8088,
      "▁कारबाहीको": 8089,
      "▁मुस्लिम": 8090,
      "▁किनकि": 8091,
      "▁जमा": 8092,
      "▁महाधिवेशनमा": 8093,
      "▁बिन्दु": 8094,
      "▁छोडेर": 8095,
      "▁सुमन": 8096,
      "▁लिए": 8097,
      "▁बिहे": 8098,
      "उप": 8099,
      "▁विश्वकर्मा": 8100,
      "▁आयोजकले": 8101,
      "▁व्यवसायीलाई": 8102,
      "▁विहान": 8103,
      "▁केन्द्रबाट": 8104,
      "▁युक्रेन": 8105,
      "▁कटान": 8106,
      "▁काफ्ले": 8107,
      "ञ्जु": 8108,
      "▁एकदिवसीय": 8109,
      "▁विभागमा": 8110,
      "▁साइकल": 8111,
      "▁करिडोर": 8112,
      "▁खै": 8113,
      "शास्त्र": 8114,
      "▁टिका": 8115,
      "न्याय": 8116,
      "▁प्रदेशले": 8117,
      "▁२-०": 8118,
      "▁शनिवार": 8119,
      "बीले": 8120,
      "▁रहेछ": 8121,
      "▁हृ": 8122,
      "▁पार्टीभित्र": 8123,
      "▁आफूहरु": 8124,
      "▁सङ्क": 8125,
      "▁छुट्टा": 8126,
      "खल": 8127,
      "▁नामावली": 8128,
      "▁लाखभन्दा": 8129,
      "▁लाग्यो।": 8130,
      "▁पारिवारिक": 8131,
      "▁थाल्": 8132,
      "▁बोलाएर": 8133,
      "▁गाउँपालिका-१": 8134,
      "▁पत्रिका": 8135,
      "▁स्पष्टीकरण": 8136,
      "प्य": 8137,
      "▁चल्न": 8138,
      "न्नु": 8139,
      "▁विषा": 8140,
      "▁कारखा": 8141,
      "▁फाइनान्स": 8142,
      "▁प्रतिस्पर्धामा": 8143,
      "▁मोदीले": 8144,
      "▁पुलको": 8145,
      "▁अनुभूति": 8146,
      "▁बनेपछि": 8147,
      "▁त्यसकारण": 8148,
      "लास": 8149,
      "▁भनिन्छ।": 8150,
      "▁मिच": 8151,
      "▁टावर": 8152,
      "गिरि": 8153,
      "▁बिक्र": 8154,
      "डीमा": 8155,
      "▁मानन्ध": 8156,
      "▁२०१५": 8157,
      "▁वर्षाका": 8158,
      "▁मार": 8159,
      "▁लागे": 8160,
      "▁छनौ": 8161,
      "मोर्चा": 8162,
      "▁'ह": 8163,
      "न्टल": 8164,
      "▁तीर्थ": 8165,
      "▁मिलन": 8166,
      "▁बाजु": 8167,
      "▁मुगु": 8168,
      "नमार्फत": 8169,
      "▁अभिलेख": 8170,
      "▁श्रीमान्": 8171,
      "▁'मा": 8172,
      "▁दाइ": 8173,
      "भाष": 8174,
      "ुरि": 8175,
      "क्रि": 8176,
      "▁क्लबका": 8177,
      "▁शिक्षामा": 8178,
      "▁म्यानचेस्टर": 8179,
      "डु": 8180,
      "▁अवकाश": 8181,
      "▁प्रवद्र्ध": 8182,
      "▁भोक": 8183,
      "▁तेक्वा": 8184,
      "▁सजिलै": 8185,
      "महा": 8186,
      "स्न": 8187,
      "▁तिहा": 8188,
      "▁जबर": 8189,
      "ज्यू": 8190,
      "▁ठिक": 8191,
      "ट्याङ": 8192,
      "▁दशैं": 8193,
      "▁ब्याट्सम्यान": 8194,
      "▁मिलेको": 8195,
      "▁दिई": 8196,
      "ेन्ज": 8197,
      "ञ्जा": 8198,
      "▁खड्का,": 8199,
      "▁लाइफ": 8200,
      "▁हौ": 8201,
      "काउने": 8202,
      "▁बधाई": 8203,
      "ँु": 8204,
      "▁कामना": 8205,
      "▁दलहरु": 8206,
      "पट": 8207,
      "▁हुनुभएको": 8208,
      "▁मध्यनजर": 8209,
      "▁कोरियाली": 8210,
      "▁तौल": 8211,
      "▁नर्स": 8212,
      "काई": 8213,
      "▁अपिल": 8214,
      "▁(अ": 8215,
      "▁सेनाका": 8216,
      "▁पुनःनिर्माण": 8217,
      "▁युवती": 8218,
      "▁लोड": 8219,
      "▁आदिवासी": 8220,
      "▁कार्यदल": 8221,
      "▁सहमतिमा": 8222,
      "श्रो": 8223,
      "च्छेद": 8224,
      "विश्वास": 8225,
      "▁खासगरी": 8226,
      "ंशी": 8227,
      "धम": 8228,
      "▁आयल": 8229,
      "▁'उहाँ": 8230,
      "▁प्रकोप": 8231,
      "▁गर्भव": 8232,
      "▁प्रतिशतसम्म": 8233,
      "राका": 8234,
      "▁सट्टा": 8235,
      "ँटा": 8236,
      "परित": 8237,
      "▁श्रेष्ठलाई": 8238,
      "▁महिनाअघि": 8239,
      "धनी": 8240,
      "▁गर्नुका": 8241,
      "तेको": 8242,
      "▁प्रतिलि": 8243,
      "▁इन्धन": 8244,
      "▁भेरी": 8245,
      "▁पदबाट": 8246,
      "▁प्रय": 8247,
      "खेर": 8248,
      "▁राईको": 8249,
      "▁समुदायले": 8250,
      "वात": 8251,
      "▁गै": 8252,
      "र्पण": 8253,
      "▁मातृ": 8254,
      "गाईं": 8255,
      "▁केसी,": 8256,
      "▁जिल्लाबाट": 8257,
      "▁तिब्ब": 8258,
      "▁फेब्रु": 8259,
      "अर": 8260,
      "होस्।": 8261,
      "▁उल्लंघन": 8262,
      "▁खोज्दा": 8263,
      "एकीकृत": 8264,
      "▁गिरावट": 8265,
      "▁गर्छु": 8266,
      "च्यु": 8267,
      "▁घरपरिवार": 8268,
      "▁देखाउने": 8269,
      "▁प्रचलन": 8270,
      "▁तालिबान": 8271,
      "▁भवनको": 8272,
      "▁सरस्वती": 8273,
      "▁पार्क": 8274,
      "▁एकदमै": 8275,
      "पर्धा": 8276,
      "▁अदालतबाट": 8277,
      "▁हुँदैन,": 8278,
      "▁सांसदको": 8279,
      "▁सामग्र": 8280,
      "▁स्पि": 8281,
      "▁मालपो": 8282,
      "मिन": 8283,
      "नुपरेको": 8284,
      "भेट": 8285,
      "▁जन्मा": 8286,
      "प्रदान": 8287,
      "▁मेची": 8288,
      "▁सार्वभौ": 8289,
      "▁'एक": 8290,
      "चारु": 8291,
      "गडा": 8292,
      "▁सुत्केरी": 8293,
      "▁भण्डारी,": 8294,
      "▁वु": 8295,
      "▁इमा": 8296,
      "▁छवि": 8297,
      "▁प्रहरीमा": 8298,
      "▁मिड": 8299,
      "▁ब्रान्ड": 8300,
      "▁सालदेखि": 8301,
      "ले,": 8302,
      "▁केदार": 8303,
      "▁उद्योगले": 8304,
      "/१": 8305,
      "▁रुपैयाँ,": 8306,
      "र्जु": 8307,
      "▁बस्तीमा": 8308,
      "▁देउवालाई": 8309,
      "▁आइतवार": 8310,
      "▁विस्तारै": 8311,
      "मन्त्रालय": 8312,
      "▁काठमाडा": 8313,
      "▁गरेसँगै": 8314,
      "▁बारम्बार": 8315,
      "च्छुक": 8316,
      "▁पर्यटकलाई": 8317,
      "▁तुरु": 8318,
      "▁पुगे।": 8319,
      "▁श्रीमान": 8320,
      "▁गर्नै": 8321,
      "▁राख्नुपर्ने": 8322,
      "▁वर्षभन्दा": 8323,
      "▁एजेण्डा": 8324,
      "▁गठित": 8325,
      "▁शेखर": 8326,
      "▁अपर": 8327,
      "▁अन्तरले": 8328,
      "▁काठमाडौँमा": 8329,
      "▁सरोज": 8330,
      "चरण": 8331,
      "▁रहेकोमा": 8332,
      "▁आवद्ध": 8333,
      "▁सिद्धार्थ": 8334,
      "▁वक्तव्य": 8335,
      "▁बढाएर": 8336,
      "म्पा": 8337,
      "▁चाइ": 8338,
      "▁स्थितिमा": 8339,
      "न्छ?": 8340,
      "तारी": 8341,
      "▁विगतका": 8342,
      "▁शरीरमा": 8343,
      "िङ": 8344,
      "▁बोल्ने": 8345,
      "▁गाडीमा": 8346,
      "▁मन्त्रालयलाई": 8347,
      "▁लागेपछि": 8348,
      "र्दन": 8349,
      "▁रणनीतिक": 8350,
      "किपर": 8351,
      "▁देखिँदैन।": 8352,
      "▁पाटन": 8353,
      "▁रेश": 8354,
      "▁महिनापछि": 8355,
      "▁कुर्": 8356,
      "▁गर्नेलाई": 8357,
      "न्डा": 8358,
      "▁बुँदा": 8359,
      "▁बोलाएको": 8360,
      "▁लापर": 8361,
      "▁बालकृष्ण": 8362,
      "▁पार्टीबाट": 8363,
      "बीचमा": 8364,
      "▁राम्रोसँग": 8365,
      "राही": 8366,
      "चीन": 8367,
      "▁समुदायमा": 8368,
      "०,": 8369,
      "▁धमाधम": 8370,
      "▁अर्काे": 8371,
      "▁भाषण": 8372,
      "▁राहु": 8373,
      "याधि": 8374,
      "▁प्रा.": 8375,
      "▁गभर्नर": 8376,
      "▁उठाएका": 8377,
      "राउ": 8378,
      "▁स्टे": 8379,
      "लगायतले": 8380,
      "▁अतिथि": 8381,
      "▁चौधरी,": 8382,
      "▁अख्तियारले": 8383,
      "ंगु": 8384,
      "▁साग": 8385,
      "▁वेब": 8386,
      "हुँदै": 8387,
      "▁तिनी": 8388,
      "▁संग्रह": 8389,
      "▁माओवादीको": 8390,
      "▁रिजालले": 8391,
      "सिङ": 8392,
      "▁परिमाण": 8393,
      "▁तुरुन्त": 8394,
      "▁प्रमाणीकरण": 8395,
      "▁आईपी": 8396,
      "▁भेरि": 8397,
      "नुको": 8398,
      "▁शान्तिपूर्ण": 8399,
      "▁चुहा": 8400,
      "▁क्रिकेटमा": 8401,
      "▁कमाइ": 8402,
      "नाल्ड": 8403,
      "▁खेर": 8404,
      "▁नेतालाई": 8405,
      "स्ति": 8406,
      "▁प्रिय": 8407,
      "▁नाघ": 8408,
      "चेत": 8409,
      "▁प्रस्ट": 8410,
      "▁ध्रु": 8411,
      "▁समेटिएको": 8412,
      "बाली": 8413,
      "िकरण": 8414,
      "ंगे": 8415,
      "▁रमाइलो": 8416,
      "▁युट": 8417,
      "जाँच": 8418,
      "▁अविश्वास": 8419,
      "▁द्विपक्षीय": 8420,
      "▁युवालाई": 8421,
      "ष्कार": 8422,
      "▁अधिकारीहरूले": 8423,
      "बार)": 8424,
      "▁स्वाभाविक": 8425,
      "▁हुन।": 8426,
      "▁कम्प्यु": 8427,
      "▁२०१४": 8428,
      "र्सले": 8429,
      "▁कान्छ": 8430,
      "▁करीब": 8431,
      "▁मार्ने": 8432,
      "▁कानुनको": 8433,
      "▁पुरुषको": 8434,
      "याले": 8435,
      "▁मानिने": 8436,
      "▁भारत,": 8437,
      "▁सहमतिको": 8438,
      "▁आइपुग्": 8439,
      "▁फिलि": 8440,
      "▁बेल्": 8441,
      "▁निष्कास": 8442,
      "▁धो": 8443,
      "▁केसीको": 8444,
      "▁दुईजना": 8445,
      "▁निर्माण,": 8446,
      "▁व्यवस्थापक": 8447,
      "▁उपसभामुख": 8448,
      "▁फेब्रुअ": 8449,
      "▁उद": 8450,
      "▁ध्यानमा": 8451,
      "सिनाले": 8452,
      "▁लेन": 8453,
      "▁जगत": 8454,
      "▁क्वारेन्टाइनमा": 8455,
      "हिँ": 8456,
      "▁मिलियन": 8457,
      "▁दायरामा": 8458,
      "▁बनायो।": 8459,
      "▁ब्रो": 8460,
      "▁मकवानपुर": 8461,
      "▁सहकारीको": 8462,
      "▁ट्रया": 8463,
      "▁अक्टोबर": 8464,
      "उँछन्।": 8465,
      "ं।": 8466,
      "▁प्याकेज": 8467,
      "▁इङ्": 8468,
      "न्थे।": 8469,
      "काले": 8470,
      "▁शाक्यले": 8471,
      "▁जनयुद्ध": 8472,
      "▁आमाको": 8473,
      "लस": 8474,
      "मोहन": 8475,
      "▁उत्तम": 8476,
      "▁मानवअधिकार": 8477,
      "र्कि": 8478,
      "▁मेरा": 8479,
      "▁उपमेयर": 8480,
      "▁इन्स्योर": 8481,
      "ेलियन": 8482,
      "▁अर्थतन्त्रको": 8483,
      "▁आन्दोलनका": 8484,
      "▁महालेखा": 8485,
      "ेछा": 8486,
      "ग्रहण": 8487,
      "▁भइसक": 8488,
      "▁बोह": 8489,
      "▁(नेकपा": 8490,
      "▁अर्याल": 8491,
      "▁सम्हा": 8492,
      "▁व्यवस्थापनको": 8493,
      "▁क्षेत्रफलमा": 8494,
      "▁कम्पनीमा": 8495,
      "▁तेज": 8496,
      "▁आदर्श": 8497,
      "▁जलस्रोत": 8498,
      "▁अक्ष": 8499,
      "न्तिक": 8500,
      "▁किनारमा": 8501,
      "▁'सा": 8502,
      "ठू": 8503,
      "्याइएको": 8504,
      "▁अफर": 8505,
      "ङ्गले": 8506,
      "यौँ": 8507,
      "▁बोर्डका": 8508,
      "▁सर्वसम्मत": 8509,
      "जारी": 8510,
      "▁क्रान्तिकारी": 8511,
      "▁लागी": 8512,
      "▁अभ्या": 8513,
      "▁अन्तरक्रिया": 8514,
      "▁सिं": 8515,
      "▁जापानी": 8516,
      "▁स्याङ्जा": 8517,
      "▁मौन": 8518,
      "जीवी": 8519,
      "लीका": 8520,
      "▁पक्की": 8521,
      "▁सम्बन्धलाई": 8522,
      "▁पीसीआर": 8523,
      "ए,": 8524,
      "▁आफूहरू": 8525,
      "▁गह": 8526,
      "▁परीक्षामा": 8527,
      "मेट": 8528,
      "▁प्रतिवादी": 8529,
      "▁गौरी": 8530,
      "▁व्यवसायमा": 8531,
      "▁आशि": 8532,
      "▁गाँजा": 8533,
      "ारको": 8534,
      "दर्शन": 8535,
      "▁जनवरी": 8536,
      "▁नबुझ": 8537,
      "▁जितमा": 8538,
      "▁तब": 8539,
      "▁गराउनु": 8540,
      "▁फ्रेन्": 8541,
      "▁नआएको": 8542,
      "▁खेलकुद)": 8543,
      "▁बने।": 8544,
      "▁भण्डारण": 8545,
      "▁जनमोर्चा": 8546,
      "▁सल्यान": 8547,
      "▁हुँ।": 8548,
      "ण्डको": 8549,
      "▁सना": 8550,
      "▁प्यारा": 8551,
      "राज्य": 8552,
      "▁घट्दै": 8553,
      "▁जनजाति": 8554,
      "खुवास": 8555,
      "▁यात्रामा": 8556,
      "▁सिनियर": 8557,
      "्याइ": 8558,
      "▁मागेको": 8559,
      "▁अधिकारीहरुले": 8560,
      "▁चुनावको": 8561,
      "▁अवस्थाको": 8562,
      "▁प्रजि": 8563,
      "▁बिज": 8564,
      "▁बर्से": 8565,
      "▁सत्तामा": 8566,
      "▁'फ": 8567,
      "▁सन्तान": 8568,
      "छिन्द्र": 8569,
      "▁फ्रि": 8570,
      "▁दौड": 8571,
      "▁चाँदीको": 8572,
      "▁उपकुलपति": 8573,
      "▁गइ": 8574,
      "▁उपत्यकाका": 8575,
      "▁गराई": 8576,
      "▁आर्जन": 8577,
      "सय": 8578,
      "▁डिसेम्बर": 8579,
      "ज्व": 8580,
      "स्थानमा": 8581,
      "▁रिस": 8582,
      "कोप्टर": 8583,
      "▁मन्त्रालय,": 8584,
      "▁उप्रेती": 8585,
      "▁गयो।": 8586,
      "▁प्रशोधन": 8587,
      "खुवासभा": 8588,
      "▁बच्न": 8589,
      "▁जीवनको": 8590,
      "▁कालीगण्डकी": 8591,
      "पल": 8592,
      "▁निलम्बन": 8593,
      "▁महिला,": 8594,
      "▁पोखरी": 8595,
      "▁विद्रोह": 8596,
      "▁डोनाल्ड": 8597,
      "▁माइती": 8598,
      "▁मगरले": 8599,
      "▁कोटा": 8600,
      "▁छौं।'": 8601,
      "▁कृष्णबहादुर": 8602,
      "पोखरी": 8603,
      "▁रोकथाम": 8604,
      "▁३-०": 8605,
      "▁खेल्": 8606,
      "▁प्रसाई": 8607,
      "▁प्रधानमन्त्रीलाई": 8608,
      "▁सुनचाँ": 8609,
      "▁कार्यलाई": 8610,
      "▁रामेछा": 8611,
      "▁सभाका": 8612,
      "मशेर": 8613,
      "क्ताको": 8614,
      "▁लगेको": 8615,
      "▁नेतृत्वले": 8616,
      "▁पढ्ने": 8617,
      "▁सामान्यतया": 8618,
      "ेटिङ": 8619,
      "▁वकिल": 8620,
      "▁लिम्बु": 8621,
      "-ब": 8622,
      "▁मेहन": 8623,
      "▁फिल्मले": 8624,
      "▁गुप्ता": 8625,
      "▁जबरजस्ती": 8626,
      "तापूर्वक": 8627,
      "▁प्रदायक": 8628,
      "नासाथ": 8629,
      "▁अछा": 8630,
      "▁संस्करण": 8631,
      "▁आफूहरुले": 8632,
      "▁सारेको": 8633,
      "▁साय": 8634,
      "▁अनुबन्ध": 8635,
      "▁सामेल": 8636,
      "▁व्यवसायिक": 8637,
      "▁गर्नुपरेको": 8638,
      "▁गुमाउने": 8639,
      "▁खग": 8640,
      "▁प्रश्नको": 8641,
      "▁सामाग्री": 8642,
      "▁प्रतिद्वन्द": 8643,
      "▁ग्रे": 8644,
      "▁अधिकृतको": 8645,
      "▁एप": 8646,
      "▁मिलि": 8647,
      "▁कोषको": 8648,
      "/०७": 8649,
      "▁उनकै": 8650,
      "▁उपसचिव": 8651,
      "▁नाग": 8652,
      "▁चाँडो": 8653,
      "तीन": 8654,
      "वन्ध": 8655,
      "▁छन्।'": 8656,
      "▁शर्माको": 8657,
      "▁स्कट": 8658,
      "▁हरियो": 8659,
      "ईको": 8660,
      "▁राम्रा": 8661,
      "▁अग्रसर": 8662,
      "▁माइक्रो": 8663,
      "पेक्ष": 8664,
      "सोम": 8665,
      "▁नच": 8666,
      "▁मोडल": 8667,
      "▁निवर्तमान": 8668,
      "▁गोलले": 8669,
      "▁हेलिकोप्टर": 8670,
      "▁'इ": 8671,
      "▁गोर्खा": 8672,
      "▁बदर": 8673,
      "▁सिधै": 8674,
      "▁हङकङ": 8675,
      "▁निर्णयमा": 8676,
      "▁ऋषि": 8677,
      "▁पेरिस": 8678,
      "ठमाड": 8679,
      "▁शता": 8680,
      "▁वायुसेवा": 8681,
      "▁हुनेगरी": 8682,
      "▁उमेश": 8683,
      "रानी": 8684,
      "पाले": 8685,
      "-क": 8686,
      "▁प्रचण्डको": 8687,
      "▁सेक": 8688,
      "▁लगायतले": 8689,
      "▁बार्सिलोना": 8690,
      "▁आइरहेका": 8691,
      "▁रूपान्तरण": 8692,
      "▁अधिकारीलाई": 8693,
      "▁बुटव": 8694,
      "▁अत्यन्तै": 8695,
      "अर्का": 8696,
      "?'": 8697,
      "▁तेक्वान्दो": 8698,
      "ट्यान्स": 8699,
      "▁महानगरपालिकाका": 8700,
      "▁साफ": 8701,
      "▁थुनामा": 8702,
      "गान": 8703,
      "▁प्रजिअ": 8704,
      "३०": 8705,
      "▁संस्थालाई": 8706,
      "क्सानी": 8707,
      "▁निकायका": 8708,
      "रक्षक": 8709,
      "▁अनियमितता": 8710,
      "ईमा": 8711,
      "▁फला": 8712,
      "▁जान्छ।": 8713,
      "▁जमिनमा": 8714,
      "लोमा": 8715,
      "पहिरो": 8716,
      "▁हेल्": 8717,
      "केन्द्र": 8718,
      "प्रेषण": 8719,
      "▁एमालेबाट": 8720,
      "▁औषधी": 8721,
      "▁सरि": 8722,
      "▁(एन": 8723,
      "▁पदम": 8724,
      "▁स्वरुप": 8725,
      "▁निकाल्ने": 8726,
      "▁झण्डा": 8727,
      "▁सेती": 8728,
      "▁सुचारु": 8729,
      "▁विकृति": 8730,
      "▁औचित": 8731,
      "▁रै": 8732,
      "▁केन्द्र,": 8733,
      "▁पाउनुपर्ने": 8734,
      "▁यससँगै": 8735,
      "▁(हाम्रो": 8736,
      "▁बोल्": 8737,
      "मद": 8738,
      "▁उपमहा": 8739,
      "▁जङ्ग": 8740,
      "▁आ-आफ्नो": 8741,
      "▁(एकीकृत": 8742,
      "▁सञ्चालनको": 8743,
      "▁सङ्ख्यामा": 8744,
      "▁हुन्छ।'": 8745,
      "सेना": 8746,
      "▁०८": 8747,
      "▁गर्छन्": 8748,
      "▁गरिँदै": 8749,
      "▁कार्यान्वयनको": 8750,
      "▁गाली": 8751,
      "▁योजनाको": 8752,
      "▁नेवि": 8753,
      "जिर": 8754,
      "▁प्रस्तावमा": 8755,
      "डेन": 8756,
      "▁हलमा": 8757,
      "▁गैरआ": 8758,
      "▁महाअ": 8759,
      "▁चितवनमा": 8760,
      "▁बताउनुहुन्छ।": 8761,
      "▁घुम्न": 8762,
      "द्धान्तिक": 8763,
      "▁हमला": 8764,
      "▁२०७०": 8765,
      "▁प्रक्षे": 8766,
      "▁लाभांश": 8767,
      "▁हिन्दू": 8768,
      "▁व्रत": 8769,
      "▁घोराही": 8770,
      "▁अप्ठ्यारो": 8771,
      "'का": 8772,
      "देन": 8773,
      "▁पूर्णता": 8774,
      "▁देउवाको": 8775,
      "▁३००": 8776,
      "▁चिन्ति": 8777,
      "▁पवि": 8778,
      "▁बुझाउने": 8779,
      "▁पति": 8780,
      "▁ज्योति": 8781,
      "▁हजारको": 8782,
      "▁विश्वविद्यालयको": 8783,
      "▁निकायलाई": 8784,
      "राहा": 8785,
      "▁विमा": 8786,
      "▁नपाइने": 8787,
      "▁सरकार,": 8788,
      "▁उसलाई": 8789,
      "▁गर्नुको": 8790,
      "▁इन्डो": 8791,
      "एकै": 8792,
      "▁निकालेर": 8793,
      "▁चाँदी": 8794,
      "▁नहर": 8795,
      "▁वान": 8796,
      "ब्य": 8797,
      "ेन्सन": 8798,
      "▁सदस्यलाई": 8799,
      "वला": 8800,
      "▁पुगे": 8801,
      "▁ब्युरो": 8802,
      "▁'त्यस": 8803,
      "▁सिकाइ": 8804,
      "▁महासंघको": 8805,
      "▁त्यसैगरी,": 8806,
      "▁रवीन्द्र": 8807,
      "▁भर्खरै": 8808,
      "▁तिनै": 8809,
      "▁हेटौँ": 8810,
      "▁कोट": 8811,
      "▁कृषि,": 8812,
      "▁विश्वविद्यालयका": 8813,
      "ोत्त": 8814,
      "नुनी": 8815,
      "▁लडाइ": 8816,
      "▁चिन्तित": 8817,
      "▁कालोपत्रे": 8818,
      "▁यकिन": 8819,
      "▁बढेका": 8820,
      "र्सा": 8821,
      "▁निर्देशनमा": 8822,
      "ग्ध": 8823,
      "▁पश्चा": 8824,
      "▁हजारौं": 8825,
      "▁प्लेट": 8826,
      "▁रुसले": 8827,
      "▁अन्तर्गतको": 8828,
      "▁छलफलका": 8829,
      "ाउनको": 8830,
      "▁जाति": 8831,
      "▁औचित्य": 8832,
      "▁अनुसारको": 8833,
      "▁चलचित्रको": 8834,
      "▁नसके": 8835,
      "▁देवकोटा": 8836,
      "▁प्रतिद्वन्द्वी": 8837,
      "▁मुस्कि": 8838,
      "▁अपरि": 8839,
      "▁जुम्ला": 8840,
      "▁घटनाबारे": 8841,
      "▁मैनाली": 8842,
      "▁गर्भवती": 8843,
      "▁खाल्": 8844,
      "▁लोकतन्त्रको": 8845,
      "...": 8846,
      "▁बोर्डको": 8847,
      "▁परिषद्को": 8848,
      "▁परिचित": 8849,
      "▁खटा": 8850,
      "▁भू-भागमा": 8851,
      "मस": 8852,
      "▁स्थलगत": 8853,
      "▁पोज": 8854,
      "▁अन्तर्वा": 8855,
      "▁यादवको": 8856,
      "श्याम": 8857,
      "▁डलरको": 8858,
      "▁मनमा": 8859,
      "लाय": 8860,
      "छ।'": 8861,
      "चौर": 8862,
      "▁फैस": 8863,
      "▁कञ्चनपुर": 8864,
      ".००": 8865,
      "ड्ने": 8866,
      "▁हिमपात": 8867,
      "▁गर्मी": 8868,
      "▁हजुर": 8869,
      "▁पीडितलाई": 8870,
      "▁झापाको": 8871,
      "▁किट": 8872,
      "▁कोषले": 8873,
      "▁मेलमिला": 8874,
      "-८": 8875,
      "▁माउ": 8876,
      "▁विपक्षमा": 8877,
      "घ्र": 8878,
      "▁गहुँ": 8879,
      "▁नेदरल्यान्ड": 8880,
      "्नै": 8881,
      "▁गुरुङको": 8882,
      "▁उर्": 8883,
      "▁लगानीकर्ताले": 8884,
      "क्यौता": 8885,
      "▁मर्": 8886,
      "▁अपाङ्ग": 8887,
      "मलाई": 8888,
      "लगायतको": 8889,
      "▁दाहालको": 8890,
      "▁नभएसम्म": 8891,
      "▁महसुल": 8892,
      "▁साधनको": 8893,
      "▁भाग्य": 8894,
      "▁क्वि": 8895,
      "▁डिल्ली": 8896,
      "▁क्यानडा": 8897,
      "▁कार्यतालिका": 8898,
      "▁अडि": 8899,
      "▁नन्द": 8900,
      "▁कम्तिमा": 8901,
      "▁नबि": 8902,
      "सिआर": 8903,
      "त्रि": 8904,
      "▁बाहिरिएको": 8905,
      "▁लम्स": 8906,
      "▁सेप्टेम्बर": 8907,
      "▁बोट": 8908,
      "▁भिन्न": 8909,
      "▁सर्वोच्चले": 8910,
      "▁घिसिङले": 8911,
      "▁मिर्ग": 8912,
      "ँची": 8913,
      "जीले": 8914,
      "▁नसक्नु": 8915,
      "▁जवान": 8916,
      "▁लिएपछि": 8917,
      "▁बेन्": 8918,
      "▁शाखाका": 8919,
      "▁शही": 8920,
      "▁अर्घा": 8921,
      "▁डीएसपी": 8922,
      "▁जर्मनी": 8923,
      "▁बैंक,": 8924,
      "▁जाडो": 8925,
      "▁सम्मको": 8926,
      "▁फौज": 8927,
      "▁सैद्धान्तिक": 8928,
      "▁रेमिट्यान्स": 8929,
      "▁पहलमा": 8930,
      "▁ओरालो": 8931,
      "संर": 8932,
      "▁छैनन्": 8933,
      "▁युनिय": 8934,
      "▁प्रक्षेपण": 8935,
      "▁फाउन्ड": 8936,
      "▁लिनु": 8937,
      "▁सुरुवाती": 8938,
      "▁टेक्": 8939,
      "▁पुरस्कृत": 8940,
      "▁एकातिर": 8941,
      "▁अवलम्बन": 8942,
      "▁निम्त्या": 8943,
      "▁डढ": 8944,
      "▁फिफा": 8945,
      "टिस": 8946,
      "▁प्रकरण": 8947,
      "▁नारायणकाजी": 8948,
      "▁बाक्": 8949,
      "म्बो": 8950,
      "वंशी": 8951,
      "ँगा": 8952,
      "▁थपे,": 8953,
      "घात": 8954,
      "▁ठाउँबाट": 8955,
      "▁समग्रमा": 8956,
      "▁रुपान्तरण": 8957,
      "▁रुपैयाँले": 8958,
      "▁दिलाए।": 8959,
      "▁मान्ने": 8960,
      "▁बैशाख": 8961,
      "▁पन्छ": 8962,
      "▁अन्तराष्ट्रिय": 8963,
      "▁खानेपानीको": 8964,
      "▁महर्जनले": 8965,
      "▁दलहरूले": 8966,
      "▁१५०": 8967,
      "▁स्थाय": 8968,
      "▁बालक": 8969,
      "नियम": 8970,
      "▁ट्रफी": 8971,
      "▁इंग्ल्यान्ड": 8972,
      "▁चीनका": 8973,
      "▁पत्रकारिता": 8974,
      "▁हुन्छन्": 8975,
      "▁निगमको": 8976,
      "▁१९७": 8977,
      "वासीय": 8978,
      "वले": 8979,
      "▁साताको": 8980,
      "▁पश्चिमा": 8981,
      "▁पठाएका": 8982,
      "पिटल": 8983,
      "▁गाँउ": 8984,
      "▁सिफारिसमा": 8985,
      "▁शताब्": 8986,
      "सनीय": 8987,
      "▁छात्रवृत्ति": 8988,
      "फेर": 8989,
      "▁छानविन": 8990,
      "▁स्वास्थ्य,": 8991,
      "▁यद्यपि,": 8992,
      "▁अंश": 8993,
      "▁जितसँगै": 8994,
      "▁गोक": 8995,
      "▁खर्चि": 8996,
      "▁हुला": 8997,
      "▁हुन्,": 8998,
      "▁निराशा": 8999,
      "▁'बा": 9000,
      "▁संलग्नता": 9001,
      "सायनिक": 9002,
      "▁प्रयोजनका": 9003,
      ")मा": 9004,
      "▁हामीसँग": 9005,
      "▁समन्वयमा": 9006,
      "▁भन्छिन्,": 9007,
      "▁उर्जा": 9008,
      "▁विद्रोही": 9009,
      "▁सोमवार": 9010,
      "▁प्रतिशतको": 9011,
      "▁काठमाडौंबाट": 9012,
      "▁प्रज्ञा": 9013,
      "▁ब्याटि": 9014,
      "ियु": 9015,
      "▁प्रदेशसभामा": 9016,
      "योजित": 9017,
      "▁पैदा": 9018,
      "▁अरे": 9019,
      "▁खुल्न": 9020,
      "▁इन्जिनिय": 9021,
      "▁राउत": 9022,
      "▁भारतलाई": 9023,
      "▁अन्तर्वार्ता": 9024,
      "▁सान": 9025,
      "▁उम्मेदवारले": 9026,
      "▁स्थायित्व": 9027,
      "▁दोश्रो": 9028,
      "▁बनाए": 9029,
      "▁उपधारा": 9030,
      "▁दूरस": 9031,
      "▁पद्धति": 9032,
      "▁कारोबारमा": 9033,
      "्रेजी": 9034,
      "▁असल": 9035,
      "▁बाहिरबाट": 9036,
      "▁जैविक": 9037,
      "▁गोप्य": 9038,
      "▁चुक्ता": 9039,
      "▁प्रयत्न": 9040,
      "▁एएफ": 9041,
      "▁ट्र्या": 9042,
      "▁पालिकामा": 9043,
      "▁(आइ": 9044,
      "सभामा": 9045,
      "▁भय": 9046,
      "▁प्रमुखको": 9047,
      "▁आफूहरूले": 9048,
      "▁पाकिस्तानी": 9049,
      "▁कार्यसम्पादन": 9050,
      "▁कांग्रेस,": 9051,
      "्ला": 9052,
      "▁सिलसि": 9053,
      "▁नारायणी": 9054,
      "▁'प्रचण्ड'": 9055,
      "▁त्यहीँ": 9056,
      "बित्तिकै": 9057,
      "▁(म": 9058,
      "▁इजरायल": 9059,
      "सिरमा": 9060,
      "▁शोक": 9061,
      "▁करिव": 9062,
      "▁खोजिएको": 9063,
      "▁ऐनको": 9064,
      "▁पन्तले": 9065,
      "▁हिमालय": 9066,
      "▁दक्षिणी": 9067,
      "भावी": 9068,
      "▁पाहुना": 9069,
      "▁सहयोगको": 9070,
      "बुद्ध": 9071,
      "▁निराश": 9072,
      "स्टार": 9073,
      "▁नेपालमै": 9074,
      "▁दूरसञ्चार": 9075,
      "▁लाम": 9076,
      "▁मझ": 9077,
      "▁थापालाई": 9078,
      "▁विषयको": 9079,
      "▁खरिदमा": 9080,
      "▁समक्ष": 9081,
      "रहेकी": 9082,
      "▁गर्यो": 9083,
      "▁गाविस": 9084,
      "▁परिकार": 9085,
      "र्दिक": 9086,
      "▁चिह्न": 9087,
      "ङ्गे": 9088,
      "▁सचेतना": 9089,
      "▁विनिमय": 9090,
      "▁लम्ब": 9091,
      "▁एड": 9092,
      "वादको": 9093,
      "▁परिचाल": 9094,
      "टिक": 9095,
      "नेस": 9096,
      "▁'मेरो": 9097,
      "▁तोकि": 9098,
      "▁ट्रेड": 9099,
      "▁रकमको": 9100,
      "न्मुख": 9101,
      "▁रहन्छ।": 9102,
      "▁ब्यू": 9103,
      "▁अमेरिकाका": 9104,
      "समूह": 9105,
      "▁२०७१": 9106,
      "▁सिजनमा": 9107,
      "▁बन्दर": 9108,
      "▁फाइल": 9109,
      "▁मुलुकले": 9110,
      "▁कार्यकर्तालाई": 9111,
      "िएर": 9112,
      "▁परिवर्तनका": 9113,
      "▁मन्दिरको": 9114,
      "▁धि": 9115,
      "▁क्षण": 9116,
      "ने,": 9117,
      "▁देवेन्द्र": 9118,
      "जेन्ट": 9119,
      "रन": 9120,
      "ख्यक": 9121,
      "▁मुस्ताङ": 9122,
      "▁पहाड": 9123,
      "ंकी": 9124,
      "घाटमा": 9125,
      "▁आउँछ": 9126,
      "▁गोलरक्षक": 9127,
      "▁सूचीकृत": 9128,
      "▁अर्घाखा": 9129,
      "▁संस्करणको": 9130,
      "▁तहलाई": 9131,
      "गंगा": 9132,
      "▁जथा": 9133,
      "▁एकेडेमी": 9134,
      "▁परिवारमा": 9135,
      "▁सेवाका": 9136,
      "▁छाड्ने": 9137,
      "▁सरा": 9138,
      "▁नगर्दा": 9139,
      "▁लियो": 9140,
      "ङ्गी": 9141,
      "▁उद्धृत": 9142,
      "▁नगरे": 9143,
      "▁हार्दिक": 9144,
      "▁टेवा": 9145,
      "पश्चात्": 9146,
      "▁शक्तिको": 9147,
      "▁दुर्गम": 9148,
      "▁दिवसका": 9149,
      "▁सृजना": 9150,
      "▁आवतजावत": 9151,
      "▁गतेबाट": 9152,
      "नन्": 9153,
      "▁समाजले": 9154,
      "▁खर्चेर": 9155,
      "▁हिमपा": 9156,
      "▁पु¥याउने": 9157,
      "▁सर्भि": 9158,
      "▁आवासीय": 9159,
      "▁पं": 9160,
      "▁काठमाडौँको": 9161,
      "▁एभर": 9162,
      "▁छनौट": 9163,
      "▁कम्प्युटर": 9164,
      "▁भइन्।": 9165,
      "▁वैद्य": 9166,
      "प्रे": 9167,
      "टिज": 9168,
      "▁प्रतिशतमा": 9169,
      "▁खत्रीले": 9170,
      "▁पथ": 9171,
      "▁वातावरणीय": 9172,
      "▁गाउँपालिका-२": 9173,
      "▁प्रहरी,": 9174,
      "▁हाइड्रोपावर": 9175,
      "-नेपाल": 9176,
      "लेटि": 9177,
      "निर्वाचित": 9178,
      "ण्डी": 9179,
      "▁अर्धशत": 9180,
      "▁महोत्सवमा": 9181,
      "▁गाउ": 9182,
      "▁बढीमा": 9183,
      "▁तुलसीपुर": 9184,
      "▁गोकर्ण": 9185,
      "▁ओखल": 9186,
      "▁बर्सेनि": 9187,
      "▁सदा": 9188,
      "ेन्टिले": 9189,
      "▁त्रास": 9190,
      "▁'जन": 9191,
      "▁महानगरपालिकाको": 9192,
      "समी": 9193,
      "▁कुखुरा": 9194,
      "▁म्याड्रि": 9195,
      "▁चल्": 9196,
      "▁आश्र": 9197,
      "▁स्थलमा": 9198,
      "▁गुमाउँदै": 9199,
      "▁भागब": 9200,
      "▁बक्यौता": 9201,
      "▁संगठित": 9202,
      "▁कार्यकालमा": 9203,
      "▁नराम्रो": 9204,
      "▁भ्रमणको": 9205,
      "▁संघसंस्था": 9206,
      "▁करणी": 9207,
      "▁सम्ममा": 9208,
      "▁निवासमा": 9209,
      "▁टिमको": 9210,
      ".जी": 9211,
      "▁चलाइ": 9212,
      "▁३,": 9213,
      "झै": 9214,
      "▁सुनचाँदी": 9215,
      "▁सकिनेछ।": 9216,
      "▁बताउँछिन्।": 9217,
      "▁एजेन्डा": 9218,
      "▁घरधु": 9219,
      "▁बिपी": 9220,
      "▁शैली": 9221,
      "▁पोजेटिभ": 9222,
      "▁अनौपचारिक": 9223,
      "▁गर्ने।": 9224,
      "▁पर्दछ।": 9225,
      "▁संघ,": 9226,
      "जीव": 9227,
      "▁नवौं": 9228,
      "▁मता": 9229,
      "▁आयातमा": 9230,
      "▁पर्दै": 9231,
      "▁खानले": 9232,
      "▁सकेसम्म": 9233,
      "▁स्क": 9234,
      "लाग्दो": 9235,
      "ौ।": 9236,
      "▁शहरी": 9237,
      "▁सास्ती": 9238,
      "▁प्रशस्त": 9239,
      "▁वैशाखमा": 9240,
      "ोलु": 9241,
      "▁बाधा": 9242,
      "▁कीर्तिपुर": 9243,
      "▁मालपोत": 9244,
      "▁अवस्थित": 9245,
      "▁कांग्रेसलाई": 9246,
      "▁उपमहासचिव": 9247,
      "नियाँ": 9248,
      "▁बनाउनका": 9249,
      "▁आश्रम": 9250,
      "छुट्टै": 9251,
      "▁पाँचौ": 9252,
      "▁गैरआवासीय": 9253,
      "▁विश्वस्त": 9254,
      "▁सबभन्दा": 9255,
      "▁छैन्।": 9256,
      "णु": 9257,
      "▁डोज": 9258,
      "▁दिलाउन": 9259,
      "▁मैत्रीपूर्ण": 9260,
      "▁अभियानको": 9261,
      "▁पन्": 9262,
      "▁शर्त": 9263,
      "▁निकासी": 9264,
      "ुरेन्ट": 9265,
      "▁घनश्याम": 9266,
      "बेच": 9267,
      "कलमा": 9268,
      "सनले": 9269,
      "▁रोपाइँ": 9270,
      "▁राखिने": 9271,
      "▁नगरपालिका,": 9272,
      "▁सातौं": 9273,
      "▁नवनि": 9274,
      "▁बन्दरगाह": 9275,
      "▁प्रतिनिधिसभामा": 9276,
      "▁लिमिटेडले": 9277,
      "▁वार": 9278,
      "▁प्रकृ": 9279,
      "▁४००": 9280,
      "▁आर्य": 9281,
      "▁मिथि": 9282,
      "▁दललाई": 9283,
      "▁दुइ": 9284,
      "▁जानकी": 9285,
      "▁डाटा": 9286,
      "▁इजरायली": 9287,
      "▁गएराति": 9288,
      "डीको": 9289,
      "▁औंल्या": 9290,
      "▁भेन्टिले": 9291,
      "▁रथ": 9292,
      "▁संक्रमणबाट": 9293,
      "▁रिसो": 9294,
      "यमान": 9295,
      "▁श्रृ": 9296,
      "▁कठिनाइ": 9297,
      "▁वञ्चित": 9298,
      "▁बिघा": 9299,
      "▁छैटौं": 9300,
      "▁अपराह्न": 9301,
      "▁अमृत": 9302,
      "उनले": 9303,
      "▁उदयपुर": 9304,
      "▁खोपको": 9305,
      "▁हृदय": 9306,
      "वलोकन": 9307,
      "▁र्या": 9308,
      "▁सन्तु": 9309,
      "▁असं": 9310,
      "▁भैरहेको": 9311,
      "आईजी": 9312,
      "ारीमा": 9313,
      "▁दवा": 9314,
      "त्कृष्ट": 9315,
      "▁गाउँपालिका-४": 9316,
      "नुका": 9317,
      "जलाई": 9318,
      "▁धरा": 9319,
      "▁सोमपाल": 9320,
      "▁०९": 9321,
      "▁पाठ्यक्रम": 9322,
      "▁नवलपरासी": 9323,
      "▁प्रत्यारोपण": 9324,
      "▁प्रेरणा": 9325,
      "र्भिक": 9326,
      "▁मन्त्रीले": 9327,
      "▁मनसुन": 9328,
      "▁भगवान": 9329,
      "▁बढ्नु": 9330,
      "▁आदानप्रदान": 9331,
      "▁रघु": 9332,
      "▁प्रचलित": 9333,
      "▁अपांग": 9334,
      "लेश्वर": 9335,
      "▁निमा": 9336,
      "▁आठौं": 9337,
      "त्तिकै": 9338,
      "▁सदन": 9339,
      "▁पैसा,": 9340,
      "म्पमा": 9341,
      ".)": 9342,
      "▁जनार्दन": 9343,
      "▁कर्जाको": 9344,
      "▁फेसबुक": 9345,
      "▁गैरकानुनी": 9346,
      "▁भन्नुभयो": 9347,
      "▁देखाउँदै": 9348,
      "▁ल्": 9349,
      "▁परिरहेको": 9350,
      "▁बाहिरी": 9351,
      "▁न्युजिल्यान्ड": 9352,
      "▁छनोटमा": 9353,
      "▁चापा": 9354,
      "▁अंग्रेजी": 9355,
      "▁खाएर": 9356,
      "▁आस्था": 9357,
      "▁शत": 9358,
      "▁अपमा": 9359,
      "▁तिर्नुपर्ने": 9360,
      "▁शैलीमा": 9361,
      "▁पाट": 9362,
      "▁जंगल": 9363,
      "▁'ख": 9364,
      "▁गरिदिएको": 9365,
      "▁दिलाएका": 9366,
[...]
